{
  "version": "1.0",
  "truncation": null,
  "padding": null,
  "added_tokens": [
    {
      "id": 0,
      "content": "<unk>",
      "single_word": false,
      "lstrip": false,
      "rstrip": false,
      "normalized": false,
      "special": true
    },
    {
      "id": 1,
      "content": "<s>",
      "single_word": false,
      "lstrip": false,
      "rstrip": false,
      "normalized": false,
      "special": true
    },
    {
      "id": 2,
      "content": "</s>",
      "single_word": false,
      "lstrip": false,
      "rstrip": false,
      "normalized": false,
      "special": true
    },
    {
      "id": 3,
      "content": "<pad>",
      "single_word": false,
      "lstrip": false,
      "rstrip": false,
      "normalized": false,
      "special": true
    }
  ],
  "normalizer": null,
  "pre_tokenizer": {
    "type": "Whitespace"
  },
  "post_processor": {
    "type": "TemplateProcessing",
    "single": [
      {
        "Sequence": {
          "id": "A",
          "type_id": 0
        }
      }
    ],
    "pair": [
      {
        "Sequence": {
          "id": "A",
          "type_id": 0
        }
      },
      {
        "Sequence": {
          "id": "B",
          "type_id": 1
        }
      }
    ],
    "special_tokens": {}
  },
  "decoder": null,
  "model": {
    "type": "BPE",
    "dropout": null,
    "unk_token": "<unk>",
    "continuing_subword_prefix": null,
    "end_of_word_suffix": null,
    "fuse_unk": false,
    "byte_fallback": false,
    "ignore_merges": false,
    "vocab": {
      "<unk>": 0,
      "<s>": 1,
      "</s>": 2,
      "<pad>": 3,
      "%": 4,
      ".": 5,
      "0": 6,
      "1": 7,
      "2": 8,
      "3": 9,
      "4": 10,
      "5": 11,
      "6": 12,
      "7": 13,
      "8": 14,
      "9": 15,
      "A": 16,
      "B": 17,
      "C": 18,
      "D": 19,
      "E": 20,
      "F": 21,
      "G": 22,
      "H": 23,
      "I": 24,
      "J": 25,
      "K": 26,
      "L": 27,
      "M": 28,
      "N": 29,
      "O": 30,
      "P": 31,
      "Q": 32,
      "R": 33,
      "S": 34,
      "T": 35,
      "U": 36,
      "V": 37,
      "W": 38,
      "X": 39,
      "Y": 40,
      "Z": 41,
      "a": 42,
      "b": 43,
      "c": 44,
      "d": 45,
      "e": 46,
      "f": 47,
      "g": 48,
      "h": 49,
      "i": 50,
      "j": 51,
      "k": 52,
      "l": 53,
      "m": 54,
      "n": 55,
      "o": 56,
      "p": 57,
      "q": 58,
      "r": 59,
      "s": 60,
      "t": 61,
      "u": 62,
      "v": 63,
      "w": 64,
      "x": 65,
      "y": 66,
      "z": 67,
      "¤": 68,
      "¨": 69,
      "©": 70,
      "®": 71,
      "°": 72,
      "±": 73,
      "²": 74,
      "³": 75,
      "µ": 76,
      "·": 77,
      "Æ": 78,
      "È": 79,
      "×": 80,
      "Ü": 81,
      "á": 82,
      "å": 83,
      "é": 84,
      "ö": 85,
      "÷": 86,
      "˚": 87,
      "ˮ": 88,
      "·": 89,
      "Δ": 90,
      "α": 91,
      "β": 92,
      "δ": 93,
      "μ": 94,
      "Ю": 95,
      "ᄀ": 96,
      "ᄂ": 97,
      "ᄃ": 98,
      "ᄅ": 99,
      "ᄆ": 100,
      "ᄇ": 101,
      "ᄉ": 102,
      "ᄊ": 103,
      "ᄋ": 104,
      "ᄌ": 105,
      "ᄎ": 106,
      "ᄏ": 107,
      "ᄐ": 108,
      "ᄑ": 109,
      "ᄒ": 110,
      "ᅡ": 111,
      "ᅢ": 112,
      "ᅣ": 113,
      "ᅥ": 114,
      "ᅦ": 115,
      "ᅧ": 116,
      "ᅨ": 117,
      "ᅩ": 118,
      "ᅪ": 119,
      "ᅬ": 120,
      "ᅭ": 121,
      "ᅮ": 122,
      "ᅯ": 123,
      "ᅱ": 124,
      "ᅲ": 125,
      "ᅳ": 126,
      "ᅴ": 127,
      "ᅵ": 128,
      "ᆨ": 129,
      "ᆫ": 130,
      "ᆯ": 131,
      "ᆷ": 132,
      "ᆸ": 133,
      "ᆺ": 134,
      "ᆻ": 135,
      "ᆼ": 136,
      "ᇁ": 137,
      "ᇂ": 138,
      "ᵢ": 139,
      "–": 140,
      "―": 141,
      "‘": 142,
      "’": 143,
      "“": 144,
      "”": 145,
      "•": 146,
      "‣": 147,
      "․": 148,
      "‥": 149,
      "…": 150,
      "‧": 151,
      "′": 152,
      "″": 153,
      "※": 154,
      "₀": 155,
      "₁": 156,
      "₂": 157,
      "₊": 158,
      "₋": 159,
      "ₖ": 160,
      "℃": 161,
      "ℓ": 162,
      "™": 163,
      "⅓": 164,
      "Ⅰ": 165,
      "Ⅱ": 166,
      "Ⅲ": 167,
      "Ⅴ": 168,
      "Ⅵ": 169,
      "Ⅷ": 170,
      "Ⅸ": 171,
      "ⅹ": 172,
      "↑": 173,
      "→": 174,
      "↓": 175,
      "↔": 176,
      "∆": 177,
      "∙": 178,
      "√": 179,
      "∩": 180,
      "∪": 181,
      "∼": 182,
      "≥": 183,
      "⋅": 184,
      "①": 185,
      "②": 186,
      "③": 187,
      "④": 188,
      "⑤": 189,
      "⑥": 190,
      "⑦": 191,
      "⑧": 192,
      "ⓒ": 193,
      "─": 194,
      "━": 195,
      "│": 196,
      "□": 197,
      "△": 198,
      "▷": 199,
      "▽": 200,
      "◇": 201,
      "○": 202,
      "●": 203,
      "★": 204,
      "☎": 205,
      "☞": 206,
      "❶": 207,
      "❷": 208,
      "❸": 209,
      "❹": 210,
      "〃": 211,
      "〈": 212,
      "〉": 213,
      "《": 214,
      "》": 215,
      "「": 216,
      "」": 217,
      "『": 218,
      "』": 219,
      "〜": 220,
      "〮": 221,
      "の": 222,
      "ア": 223,
      "ィ": 224,
      "イ": 225,
      "ェ": 226,
      "カ": 227,
      "ク": 228,
      "サ": 229,
      "ジ": 230,
      "ス": 231,
      "ズ": 232,
      "セ": 233,
      "ッ": 234,
      "ツ": 235,
      "テ": 236,
      "デ": 237,
      "ト": 238,
      "ニ": 239,
      "ピ": 240,
      "フ": 241,
      "プ": 242,
      "ム": 243,
      "ラ": 244,
      "リ": 245,
      "ル": 246,
      "ロ": 247,
      "・": 248,
      "ー": 249,
      "ㄱ": 250,
      "ㄴ": 251,
      "ㄷ": 252,
      "ㄹ": 253,
      "ㅁ": 254,
      "ㅅ": 255,
      "ㅆ": 256,
      "ㅇ": 257,
      "ㅋ": 258,
      "ㅌ": 259,
      "ㅍ": 260,
      "ㅐ": 261,
      "ㅓ": 262,
      "ㅘ": 263,
      "ㅡ": 264,
      "ㆍ": 265,
      "㈔": 266,
      "㈜": 267,
      "㎉": 268,
      "㎍": 269,
      "㎎": 270,
      "㎏": 271,
      "㎐": 272,
      "㎒": 273,
      "㎓": 274,
      "㎔": 275,
      "㎕": 276,
      "㎖": 277,
      "㎗": 278,
      "㎘": 279,
      "㎚": 280,
      "㎛": 281,
      "㎜": 282,
      "㎝": 283,
      "㎞": 284,
      "㎠": 285,
      "㎡": 286,
      "㎢": 287,
      "㎤": 288,
      "㎥": 289,
      "㎦": 290,
      "㎧": 291,
      "㎩": 292,
      "㎳": 293,
      "㎸": 294,
      "㎹": 295,
      "㎽": 296,
      "㎾": 297,
      "㎿": 298,
      "㏄": 299,
      "㏈": 300,
      "㏊": 301,
      "一": 302,
      "七": 303,
      "三": 304,
      "上": 305,
      "下": 306,
      "不": 307,
      "世": 308,
      "东": 309,
      "中": 310,
      "主": 311,
      "久": 312,
      "之": 313,
      "乎": 314,
      "乙": 315,
      "事": 316,
      "互": 317,
      "五": 318,
      "井": 319,
      "亞": 320,
      "享": 321,
      "京": 322,
      "人": 323,
      "他": 324,
      "代": 325,
      "令": 326,
      "以": 327,
      "企": 328,
      "伊": 329,
      "低": 330,
      "佐": 331,
      "何": 332,
      "佛": 333,
      "作": 334,
      "使": 335,
      "來": 336,
      "保": 337,
      "信": 338,
      "倉": 339,
      "値": 340,
      "倫": 341,
      "健": 342,
      "傑": 343,
      "傷": 344,
      "像": 345,
      "價": 346,
      "元": 347,
      "兆": 348,
      "先": 349,
      "光": 350,
      "免": 351,
      "內": 352,
      "全": 353,
      "八": 354,
      "公": 355,
      "共": 356,
      "冀": 357,
      "冊": 358,
      "冬": 359,
      "出": 360,
      "分": 361,
      "刊": 362,
      "列": 363,
      "刘": 364,
      "別": 365,
      "利": 366,
      "制": 367,
      "刻": 368,
      "前": 369,
      "剝": 370,
      "副": 371,
      "創": 372,
      "劉": 373,
      "劍": 374,
      "力": 375,
      "加": 376,
      "勇": 377,
      "動": 378,
      "務": 379,
      "勝": 380,
      "勢": 381,
      "勸": 382,
      "化": 383,
      "北": 384,
      "匠": 385,
      "匹": 386,
      "區": 387,
      "十": 388,
      "半": 389,
      "南": 390,
      "博": 391,
      "印": 392,
      "厚": 393,
      "原": 394,
      "去": 395,
      "友": 396,
      "反": 397,
      "口": 398,
      "古": 399,
      "句": 400,
      "可": 401,
      "台": 402,
      "史": 403,
      "右": 404,
      "司": 405,
      "合": 406,
      "吉": 407,
      "同": 408,
      "名": 409,
      "向": 410,
      "吴": 411,
      "呑": 412,
      "周": 413,
      "味": 414,
      "命": 415,
      "和": 416,
      "哈": 417,
      "哲": 418,
      "商": 419,
      "善": 420,
      "喝": 421,
      "器": 422,
      "团": 423,
      "国": 424,
      "图": 425,
      "圈": 426,
      "國": 427,
      "園": 428,
      "團": 429,
      "土": 430,
      "在": 431,
      "地": 432,
      "圳": 433,
      "坤": 434,
      "垠": 435,
      "埈": 436,
      "基": 437,
      "報": 438,
      "場": 439,
      "塚": 440,
      "壁": 441,
      "士": 442,
      "壽": 443,
      "夏": 444,
      "外": 445,
      "多": 446,
      "夜": 447,
      "夢": 448,
      "大": 449,
      "天": 450,
      "太": 451,
      "夫": 452,
      "失": 453,
      "奈": 454,
      "委": 455,
      "婦": 456,
      "媒": 457,
      "嬪": 458,
      "子": 459,
      "孔": 460,
      "孚": 461,
      "孝": 462,
      "學": 463,
      "宇": 464,
      "安": 465,
      "宋": 466,
      "官": 467,
      "宙": 468,
      "定": 469,
      "宮": 470,
      "家": 471,
      "容": 472,
      "宿": 473,
      "富": 474,
      "實": 475,
      "寧": 476,
      "寶": 477,
      "封": 478,
      "射": 479,
      "對": 480,
      "小": 481,
      "尹": 482,
      "尼": 483,
      "尾": 484,
      "局": 485,
      "展": 486,
      "屬": 487,
      "山": 488,
      "岸": 489,
      "峰": 490,
      "島": 491,
      "崎": 492,
      "崑": 493,
      "崔": 494,
      "崙": 495,
      "川": 496,
      "州": 497,
      "工": 498,
      "左": 499,
      "市": 500,
      "布": 501,
      "帝": 502,
      "席": 503,
      "帶": 504,
      "常": 505,
      "幕": 506,
      "平": 507,
      "年": 508,
      "幾": 509,
      "広": 510,
      "庄": 511,
      "床": 512,
      "庫": 513,
      "康": 514,
      "建": 515,
      "式": 516,
      "弗": 517,
      "弘": 518,
      "張": 519,
      "強": 520,
      "强": 521,
      "形": 522,
      "影": 523,
      "後": 524,
      "微": 525,
      "德": 526,
      "心": 527,
      "必": 528,
      "忍": 529,
      "快": 530,
      "怡": 531,
      "性": 532,
      "怨": 533,
      "恒": 534,
      "恨": 535,
      "息": 536,
      "情": 537,
      "惜": 538,
      "惡": 539,
      "想": 540,
      "愛": 541,
      "態": 542,
      "懲": 543,
      "成": 544,
      "戰": 545,
      "才": 546,
      "技": 547,
      "拓": 548,
      "据": 549,
      "換": 550,
      "收": 551,
      "政": 552,
      "故": 553,
      "敏": 554,
      "敗": 555,
      "散": 556,
      "敬": 557,
      "数": 558,
      "數": 559,
      "文": 560,
      "料": 561,
      "新": 562,
      "方": 563,
      "於": 564,
      "族": 565,
      "日": 566,
      "昊": 567,
      "昌": 568,
      "明": 569,
      "易": 570,
      "星": 571,
      "春": 572,
      "昭": 573,
      "是": 574,
      "時": 575,
      "晉": 576,
      "景": 577,
      "晶": 578,
      "智": 579,
      "暑": 580,
      "暗": 581,
      "曉": 582,
      "最": 583,
      "會": 584,
      "月": 585,
      "有": 586,
      "期": 587,
      "未": 588,
      "本": 589,
      "李": 590,
      "材": 591,
      "杰": 592,
      "東": 593,
      "松": 594,
      "板": 595,
      "林": 596,
      "柳": 597,
      "株": 598,
      "栱": 599,
      "核": 600,
      "格": 601,
      "桂": 602,
      "桃": 603,
      "案": 604,
      "梁": 605,
      "棟": 606,
      "業": 607,
      "樂": 608,
      "樹": 609,
      "機": 610,
      "檢": 611,
      "權": 612,
      "正": 613,
      "步": 614,
      "歸": 615,
      "死": 616,
      "母": 617,
      "毒": 618,
      "比": 619,
      "民": 620,
      "氣": 621,
      "水": 622,
      "永": 623,
      "求": 624,
      "汕": 625,
      "江": 626,
      "池": 627,
      "油": 628,
      "治": 629,
      "法": 630,
      "泗": 631,
      "波": 632,
      "泰": 633,
      "洋": 634,
      "洞": 635,
      "津": 636,
      "流": 637,
      "浦": 638,
      "浪": 639,
      "海": 640,
      "涌": 641,
      "深": 642,
      "淸": 643,
      "港": 644,
      "湖": 645,
      "源": 646,
      "準": 647,
      "溫": 648,
      "漁": 649,
      "漢": 650,
      "漫": 651,
      "澳": 652,
      "濟": 653,
      "瀋": 654,
      "灌": 655,
      "灘": 656,
      "灣": 657,
      "火": 658,
      "災": 659,
      "烈": 660,
      "烏": 661,
      "無": 662,
      "照": 663,
      "熙": 664,
      "熱": 665,
      "燃": 666,
      "父": 667,
      "版": 668,
      "牔": 669,
      "牛": 670,
      "物": 671,
      "特": 672,
      "獨": 673,
      "獵": 674,
      "獸": 675,
      "王": 676,
      "珥": 677,
      "現": 678,
      "球": 679,
      "瑤": 680,
      "甄": 681,
      "生": 682,
      "産": 683,
      "用": 684,
      "田": 685,
      "甲": 686,
      "男": 687,
      "界": 688,
      "異": 689,
      "畵": 690,
      "病": 691,
      "痛": 692,
      "發": 693,
      "百": 694,
      "的": 695,
      "監": 696,
      "眞": 697,
      "睡": 698,
      "知": 699,
      "短": 700,
      "石": 701,
      "砲": 702,
      "破": 703,
      "硏": 704,
      "碧": 705,
      "碩": 706,
      "社": 707,
      "祐": 708,
      "神": 709,
      "福": 710,
      "秀": 711,
      "私": 712,
      "秋": 713,
      "科": 714,
      "稅": 715,
      "程": 716,
      "種": 717,
      "積": 718,
      "穎": 719,
      "空": 720,
      "竹": 721,
      "笑": 722,
      "等": 723,
      "算": 724,
      "管": 725,
      "簿": 726,
      "米": 727,
      "粉": 728,
      "粵": 729,
      "紅": 730,
      "純": 731,
      "紙": 732,
      "終": 733,
      "組": 734,
      "絲": 735,
      "經": 736,
      "綢": 737,
      "網": 738,
      "線": 739,
      "織": 740,
      "缺": 741,
      "羊": 742,
      "美": 743,
      "義": 744,
      "習": 745,
      "老": 746,
      "者": 747,
      "聖": 748,
      "聯": 749,
      "育": 750,
      "胃": 751,
      "脈": 752,
      "脫": 753,
      "自": 754,
      "臺": 755,
      "與": 756,
      "興": 757,
      "舊": 758,
      "航": 759,
      "船": 760,
      "良": 761,
      "色": 762,
      "芬": 763,
      "芯": 764,
      "花": 765,
      "苦": 766,
      "英": 767,
      "茂": 768,
      "茶": 769,
      "菊": 770,
      "菌": 771,
      "華": 772,
      "菴": 773,
      "落": 774,
      "蓮": 775,
      "蔡": 776,
      "薄": 777,
      "藤": 778,
      "蘇": 779,
      "蘭": 780,
      "虎": 781,
      "號": 782,
      "虹": 783,
      "蜜": 784,
      "螢": 785,
      "血": 786,
      "行": 787,
      "街": 788,
      "表": 789,
      "裝": 790,
      "西": 791,
      "視": 792,
      "親": 793,
      "觀": 794,
      "觉": 795,
      "訊": 796,
      "訪": 797,
      "許": 798,
      "試": 799,
      "詩": 800,
      "話": 801,
      "誠": 802,
      "誤": 803,
      "談": 804,
      "請": 805,
      "論": 806,
      "講": 807,
      "證": 808,
      "警": 809,
      "護": 810,
      "譽": 811,
      "讀": 812,
      "语": 813,
      "貞": 814,
      "負": 815,
      "財": 816,
      "貪": 817,
      "費": 818,
      "賑": 819,
      "贛": 820,
      "起": 821,
      "超": 822,
      "路": 823,
      "車": 824,
      "軍": 825,
      "近": 826,
      "返": 827,
      "迪": 828,
      "逆": 829,
      "透": 830,
      "通": 831,
      "連": 832,
      "週": 833,
      "進": 834,
      "遇": 835,
      "道": 836,
      "達": 837,
      "遠": 838,
      "遭": 839,
      "選": 840,
      "遼": 841,
      "邁": 842,
      "邦": 843,
      "郞": 844,
      "酌": 845,
      "酒": 846,
      "醒": 847,
      "釀": 848,
      "里": 849,
      "重": 850,
      "野": 851,
      "量": 852,
      "金": 853,
      "銀": 854,
      "鋒": 855,
      "鋪": 856,
      "鋰": 857,
      "錫": 858,
      "鏡": 859,
      "鐵": 860,
      "镇": 861,
      "長": 862,
      "開": 863,
      "關": 864,
      "限": 865,
      "陝": 866,
      "院": 867,
      "陰": 868,
      "陽": 869,
      "階": 870,
      "隙": 871,
      "際": 872,
      "雄": 873,
      "雅": 874,
      "集": 875,
      "雛": 876,
      "離": 877,
      "電": 878,
      "靑": 879,
      "靜": 880,
      "非": 881,
      "面": 882,
      "韓": 883,
      "韩": 884,
      "順": 885,
      "顚": 886,
      "風": 887,
      "飛": 888,
      "食": 889,
      "飾": 890,
      "餠": 891,
      "首": 892,
      "香": 893,
      "馬": 894,
      "馳": 895,
      "骨": 896,
      "體": 897,
      "高": 898,
      "鬪": 899,
      "魔": 900,
      "鰒": 901,
      "鳥": 902,
      "鶴": 903,
      "鷄": 904,
      "鹏": 905,
      "鹵": 906,
      "黑": 907,
      "點": 908,
      "龍": 909,
      "龙": 910,
      "가": 911,
      "각": 912,
      "간": 913,
      "갇": 914,
      "갈": 915,
      "갉": 916,
      "감": 917,
      "갑": 918,
      "값": 919,
      "갓": 920,
      "갔": 921,
      "강": 922,
      "갖": 923,
      "같": 924,
      "갚": 925,
      "갛": 926,
      "개": 927,
      "객": 928,
      "갠": 929,
      "갤": 930,
      "갬": 931,
      "갭": 932,
      "갯": 933,
      "갰": 934,
      "갱": 935,
      "갸": 936,
      "갹": 937,
      "걀": 938,
      "걍": 939,
      "걔": 940,
      "거": 941,
      "걱": 942,
      "건": 943,
      "걷": 944,
      "걸": 945,
      "검": 946,
      "겁": 947,
      "것": 948,
      "겅": 949,
      "겆": 950,
      "겉": 951,
      "게": 952,
      "겐": 953,
      "겔": 954,
      "겜": 955,
      "겟": 956,
      "겠": 957,
      "겨": 958,
      "격": 959,
      "겪": 960,
      "견": 961,
      "겯": 962,
      "결": 963,
      "겸": 964,
      "겹": 965,
      "겻": 966,
      "겼": 967,
      "경": 968,
      "곁": 969,
      "계": 970,
      "고": 971,
      "곡": 972,
      "곤": 973,
      "곧": 974,
      "골": 975,
      "곪": 976,
      "곰": 977,
      "곱": 978,
      "곳": 979,
      "공": 980,
      "곶": 981,
      "과": 982,
      "곽": 983,
      "관": 984,
      "괄": 985,
      "괌": 986,
      "괍": 987,
      "괏": 988,
      "광": 989,
      "괘": 990,
      "괜": 991,
      "괭": 992,
      "괴": 993,
      "괵": 994,
      "괸": 995,
      "굉": 996,
      "교": 997,
      "굣": 998,
      "구": 999,
      "국": 1000,
      "군": 1001,
      "굳": 1002,
      "굴": 1003,
      "굵": 1004,
      "굶": 1005,
      "굼": 1006,
      "굽": 1007,
      "굿": 1008,
      "궁": 1009,
      "궂": 1010,
      "궈": 1011,
      "권": 1012,
      "궐": 1013,
      "궜": 1014,
      "궤": 1015,
      "귀": 1016,
      "귄": 1017,
      "규": 1018,
      "균": 1019,
      "귤": 1020,
      "귬": 1021,
      "그": 1022,
      "극": 1023,
      "근": 1024,
      "글": 1025,
      "긁": 1026,
      "금": 1027,
      "급": 1028,
      "긋": 1029,
      "긍": 1030,
      "기": 1031,
      "긱": 1032,
      "긴": 1033,
      "길": 1034,
      "김": 1035,
      "깁": 1036,
      "깃": 1037,
      "깅": 1038,
      "깊": 1039,
      "까": 1040,
      "깍": 1041,
      "깎": 1042,
      "깐": 1043,
      "깔": 1044,
      "깜": 1045,
      "깝": 1046,
      "깡": 1047,
      "깥": 1048,
      "깨": 1049,
      "깬": 1050,
      "깰": 1051,
      "깻": 1052,
      "깼": 1053,
      "꺼": 1054,
      "꺽": 1055,
      "꺾": 1056,
      "껀": 1057,
      "껄": 1058,
      "껌": 1059,
      "껍": 1060,
      "껏": 1061,
      "껐": 1062,
      "껑": 1063,
      "께": 1064,
      "껫": 1065,
      "껴": 1066,
      "꼈": 1067,
      "꼐": 1068,
      "꼬": 1069,
      "꼭": 1070,
      "꼰": 1071,
      "꼴": 1072,
      "꼼": 1073,
      "꼽": 1074,
      "꽁": 1075,
      "꽂": 1076,
      "꽃": 1077,
      "꽈": 1078,
      "꽉": 1079,
      "꽝": 1080,
      "꽤": 1081,
      "꾀": 1082,
      "꾐": 1083,
      "꾸": 1084,
      "꾹": 1085,
      "꾼": 1086,
      "꿀": 1087,
      "꿇": 1088,
      "꿈": 1089,
      "꿉": 1090,
      "꿋": 1091,
      "꿍": 1092,
      "꿎": 1093,
      "꿔": 1094,
      "꿨": 1095,
      "꿩": 1096,
      "꿰": 1097,
      "뀌": 1098,
      "뀐": 1099,
      "뀔": 1100,
      "뀜": 1101,
      "뀝": 1102,
      "끄": 1103,
      "끈": 1104,
      "끊": 1105,
      "끌": 1106,
      "끓": 1107,
      "끔": 1108,
      "끕": 1109,
      "끗": 1110,
      "끙": 1111,
      "끝": 1112,
      "끼": 1113,
      "끽": 1114,
      "낀": 1115,
      "낄": 1116,
      "낌": 1117,
      "낍": 1118,
      "나": 1119,
      "낙": 1120,
      "낚": 1121,
      "난": 1122,
      "날": 1123,
      "낡": 1124,
      "남": 1125,
      "납": 1126,
      "낫": 1127,
      "났": 1128,
      "낭": 1129,
      "낮": 1130,
      "낯": 1131,
      "낱": 1132,
      "낳": 1133,
      "내": 1134,
      "낵": 1135,
      "낸": 1136,
      "낼": 1137,
      "냄": 1138,
      "냅": 1139,
      "냇": 1140,
      "냈": 1141,
      "냉": 1142,
      "냐": 1143,
      "냑": 1144,
      "냔": 1145,
      "냠": 1146,
      "냥": 1147,
      "너": 1148,
      "넉": 1149,
      "넌": 1150,
      "널": 1151,
      "넒": 1152,
      "넓": 1153,
      "넘": 1154,
      "넙": 1155,
      "넛": 1156,
      "넜": 1157,
      "넝": 1158,
      "넣": 1159,
      "네": 1160,
      "넥": 1161,
      "넨": 1162,
      "넬": 1163,
      "넵": 1164,
      "넷": 1165,
      "넸": 1166,
      "녀": 1167,
      "녁": 1168,
      "년": 1169,
      "념": 1170,
      "녔": 1171,
      "녕": 1172,
      "녘": 1173,
      "노": 1174,
      "녹": 1175,
      "논": 1176,
      "놀": 1177,
      "놈": 1178,
      "놉": 1179,
      "농": 1180,
      "높": 1181,
      "놓": 1182,
      "놔": 1183,
      "놨": 1184,
      "뇌": 1185,
      "뇨": 1186,
      "뇽": 1187,
      "누": 1188,
      "눅": 1189,
      "눈": 1190,
      "눌": 1191,
      "눔": 1192,
      "눕": 1193,
      "눗": 1194,
      "눠": 1195,
      "눴": 1196,
      "뉘": 1197,
      "뉜": 1198,
      "뉠": 1199,
      "뉩": 1200,
      "뉴": 1201,
      "늄": 1202,
      "늇": 1203,
      "늉": 1204,
      "느": 1205,
      "늑": 1206,
      "는": 1207,
      "늘": 1208,
      "늙": 1209,
      "늠": 1210,
      "늡": 1211,
      "능": 1212,
      "늦": 1213,
      "늪": 1214,
      "늬": 1215,
      "니": 1216,
      "닉": 1217,
      "닌": 1218,
      "닐": 1219,
      "님": 1220,
      "닙": 1221,
      "닛": 1222,
      "닝": 1223,
      "다": 1224,
      "닥": 1225,
      "닦": 1226,
      "단": 1227,
      "닫": 1228,
      "달": 1229,
      "닭": 1230,
      "닮": 1231,
      "닳": 1232,
      "담": 1233,
      "답": 1234,
      "닷": 1235,
      "당": 1236,
      "닻": 1237,
      "닿": 1238,
      "대": 1239,
      "댁": 1240,
      "댄": 1241,
      "댈": 1242,
      "댐": 1243,
      "댑": 1244,
      "댓": 1245,
      "댔": 1246,
      "댕": 1247,
      "댜": 1248,
      "댠": 1249,
      "더": 1250,
      "덕": 1251,
      "던": 1252,
      "덜": 1253,
      "덟": 1254,
      "덤": 1255,
      "덥": 1256,
      "덧": 1257,
      "덩": 1258,
      "덫": 1259,
      "덮": 1260,
      "데": 1261,
      "덱": 1262,
      "덴": 1263,
      "델": 1264,
      "뎀": 1265,
      "뎁": 1266,
      "뎃": 1267,
      "뎅": 1268,
      "뎌": 1269,
      "뎠": 1270,
      "뎬": 1271,
      "도": 1272,
      "독": 1273,
      "돈": 1274,
      "돋": 1275,
      "돌": 1276,
      "돔": 1277,
      "돕": 1278,
      "돗": 1279,
      "동": 1280,
      "돛": 1281,
      "돤": 1282,
      "돼": 1283,
      "됏": 1284,
      "됐": 1285,
      "되": 1286,
      "된": 1287,
      "될": 1288,
      "됨": 1289,
      "됩": 1290,
      "두": 1291,
      "둑": 1292,
      "둔": 1293,
      "둘": 1294,
      "둠": 1295,
      "둡": 1296,
      "둣": 1297,
      "둥": 1298,
      "둬": 1299,
      "뒀": 1300,
      "뒤": 1301,
      "뒷": 1302,
      "뒹": 1303,
      "듀": 1304,
      "듈": 1305,
      "듐": 1306,
      "드": 1307,
      "득": 1308,
      "든": 1309,
      "듣": 1310,
      "들": 1311,
      "듦": 1312,
      "듬": 1313,
      "듭": 1314,
      "듯": 1315,
      "등": 1316,
      "디": 1317,
      "딕": 1318,
      "딘": 1319,
      "딛": 1320,
      "딜": 1321,
      "딤": 1322,
      "딥": 1323,
      "딧": 1324,
      "딩": 1325,
      "딪": 1326,
      "따": 1327,
      "딱": 1328,
      "딴": 1329,
      "딸": 1330,
      "땀": 1331,
      "땄": 1332,
      "땅": 1333,
      "때": 1334,
      "땐": 1335,
      "땔": 1336,
      "땜": 1337,
      "땠": 1338,
      "땡": 1339,
      "떄": 1340,
      "떠": 1341,
      "떡": 1342,
      "떤": 1343,
      "떨": 1344,
      "떴": 1345,
      "떻": 1346,
      "떼": 1347,
      "뗀": 1348,
      "뗄": 1349,
      "뗍": 1350,
      "뗏": 1351,
      "뗐": 1352,
      "뗴": 1353,
      "뗼": 1354,
      "또": 1355,
      "똑": 1356,
      "똘": 1357,
      "똠": 1358,
      "똥": 1359,
      "똬": 1360,
      "뙤": 1361,
      "뚜": 1362,
      "뚝": 1363,
      "뚫": 1364,
      "뚱": 1365,
      "뛰": 1366,
      "뛴": 1367,
      "뛸": 1368,
      "뜀": 1369,
      "뜁": 1370,
      "뜨": 1371,
      "뜩": 1372,
      "뜬": 1373,
      "뜯": 1374,
      "뜰": 1375,
      "뜸": 1376,
      "뜹": 1377,
      "뜻": 1378,
      "띄": 1379,
      "띈": 1380,
      "띌": 1381,
      "띔": 1382,
      "띕": 1383,
      "띠": 1384,
      "띤": 1385,
      "띨": 1386,
      "띱": 1387,
      "띵": 1388,
      "라": 1389,
      "락": 1390,
      "란": 1391,
      "랄": 1392,
      "람": 1393,
      "랍": 1394,
      "랏": 1395,
      "랐": 1396,
      "랑": 1397,
      "랗": 1398,
      "래": 1399,
      "랙": 1400,
      "랜": 1401,
      "랠": 1402,
      "램": 1403,
      "랩": 1404,
      "랫": 1405,
      "랬": 1406,
      "랭": 1407,
      "랲": 1408,
      "랴": 1409,
      "략": 1410,
      "랸": 1411,
      "럈": 1412,
      "량": 1413,
      "러": 1414,
      "럭": 1415,
      "런": 1416,
      "럴": 1417,
      "럼": 1418,
      "럽": 1419,
      "럿": 1420,
      "렀": 1421,
      "렁": 1422,
      "렇": 1423,
      "레": 1424,
      "렉": 1425,
      "렌": 1426,
      "렐": 1427,
      "렘": 1428,
      "렙": 1429,
      "렛": 1430,
      "렝": 1431,
      "려": 1432,
      "력": 1433,
      "련": 1434,
      "렬": 1435,
      "렴": 1436,
      "렵": 1437,
      "렷": 1438,
      "렸": 1439,
      "령": 1440,
      "례": 1441,
      "롄": 1442,
      "롑": 1443,
      "로": 1444,
      "록": 1445,
      "론": 1446,
      "롤": 1447,
      "롬": 1448,
      "롭": 1449,
      "롯": 1450,
      "롱": 1451,
      "롸": 1452,
      "뢰": 1453,
      "룀": 1454,
      "료": 1455,
      "룟": 1456,
      "룡": 1457,
      "루": 1458,
      "룩": 1459,
      "룬": 1460,
      "룰": 1461,
      "룸": 1462,
      "룹": 1463,
      "룻": 1464,
      "룽": 1465,
      "뤄": 1466,
      "뤈": 1467,
      "뤘": 1468,
      "뤼": 1469,
      "륀": 1470,
      "류": 1471,
      "륙": 1472,
      "륜": 1473,
      "률": 1474,
      "륨": 1475,
      "륭": 1476,
      "르": 1477,
      "륵": 1478,
      "른": 1479,
      "를": 1480,
      "름": 1481,
      "릅": 1482,
      "릇": 1483,
      "릉": 1484,
      "릍": 1485,
      "릎": 1486,
      "릐": 1487,
      "리": 1488,
      "릭": 1489,
      "린": 1490,
      "릴": 1491,
      "림": 1492,
      "립": 1493,
      "릿": 1494,
      "링": 1495,
      "마": 1496,
      "막": 1497,
      "만": 1498,
      "많": 1499,
      "맏": 1500,
      "말": 1501,
      "맑": 1502,
      "맘": 1503,
      "맙": 1504,
      "맛": 1505,
      "망": 1506,
      "맞": 1507,
      "맡": 1508,
      "맣": 1509,
      "매": 1510,
      "맥": 1511,
      "맨": 1512,
      "맬": 1513,
      "맴": 1514,
      "맵": 1515,
      "맷": 1516,
      "맸": 1517,
      "맹": 1518,
      "맺": 1519,
      "먀": 1520,
      "머": 1521,
      "먹": 1522,
      "먼": 1523,
      "멀": 1524,
      "멈": 1525,
      "멉": 1526,
      "멋": 1527,
      "멍": 1528,
      "멎": 1529,
      "메": 1530,
      "멕": 1531,
      "멘": 1532,
      "멜": 1533,
      "멤": 1534,
      "멥": 1535,
      "멧": 1536,
      "멩": 1537,
      "며": 1538,
      "면": 1539,
      "멸": 1540,
      "몄": 1541,
      "명": 1542,
      "몇": 1543,
      "모": 1544,
      "목": 1545,
      "몫": 1546,
      "몬": 1547,
      "몰": 1548,
      "몸": 1549,
      "몹": 1550,
      "못": 1551,
      "몽": 1552,
      "뫼": 1553,
      "묘": 1554,
      "묠": 1555,
      "무": 1556,
      "묵": 1557,
      "묶": 1558,
      "문": 1559,
      "묻": 1560,
      "물": 1561,
      "묽": 1562,
      "뭄": 1563,
      "뭅": 1564,
      "뭇": 1565,
      "뭉": 1566,
      "뭐": 1567,
      "뭔": 1568,
      "뭘": 1569,
      "뭡": 1570,
      "뮌": 1571,
      "뮐": 1572,
      "뮤": 1573,
      "뮨": 1574,
      "뮬": 1575,
      "뮴": 1576,
      "므": 1577,
      "믈": 1578,
      "믐": 1579,
      "미": 1580,
      "믹": 1581,
      "민": 1582,
      "믿": 1583,
      "밀": 1584,
      "밈": 1585,
      "밉": 1586,
      "밋": 1587,
      "밌": 1588,
      "밍": 1589,
      "밎": 1590,
      "및": 1591,
      "밑": 1592,
      "바": 1593,
      "박": 1594,
      "밖": 1595,
      "반": 1596,
      "받": 1597,
      "발": 1598,
      "밝": 1599,
      "밞": 1600,
      "밟": 1601,
      "밤": 1602,
      "밥": 1603,
      "밧": 1604,
      "방": 1605,
      "밭": 1606,
      "배": 1607,
      "백": 1608,
      "밴": 1609,
      "밸": 1610,
      "뱀": 1611,
      "뱁": 1612,
      "뱃": 1613,
      "뱄": 1614,
      "뱅": 1615,
      "뱉": 1616,
      "뱍": 1617,
      "뱐": 1618,
      "뱡": 1619,
      "버": 1620,
      "벅": 1621,
      "번": 1622,
      "벌": 1623,
      "범": 1624,
      "법": 1625,
      "벗": 1626,
      "벙": 1627,
      "벚": 1628,
      "베": 1629,
      "벡": 1630,
      "벤": 1631,
      "벨": 1632,
      "벳": 1633,
      "벵": 1634,
      "벼": 1635,
      "벽": 1636,
      "변": 1637,
      "별": 1638,
      "볍": 1639,
      "볏": 1640,
      "볐": 1641,
      "병": 1642,
      "볕": 1643,
      "보": 1644,
      "복": 1645,
      "볶": 1646,
      "본": 1647,
      "볼": 1648,
      "봄": 1649,
      "봅": 1650,
      "봇": 1651,
      "봉": 1652,
      "봐": 1653,
      "봤": 1654,
      "봬": 1655,
      "뵀": 1656,
      "뵈": 1657,
      "뵌": 1658,
      "뵐": 1659,
      "뵙": 1660,
      "부": 1661,
      "북": 1662,
      "분": 1663,
      "붇": 1664,
      "불": 1665,
      "붉": 1666,
      "붐": 1667,
      "붑": 1668,
      "붓": 1669,
      "붕": 1670,
      "붖": 1671,
      "붙": 1672,
      "붜": 1673,
      "뷔": 1674,
      "뷜": 1675,
      "뷰": 1676,
      "뷸": 1677,
      "브": 1678,
      "븐": 1679,
      "블": 1680,
      "비": 1681,
      "빅": 1682,
      "빈": 1683,
      "빌": 1684,
      "빔": 1685,
      "빕": 1686,
      "빗": 1687,
      "빙": 1688,
      "빚": 1689,
      "빛": 1690,
      "빠": 1691,
      "빡": 1692,
      "빤": 1693,
      "빨": 1694,
      "빱": 1695,
      "빴": 1696,
      "빵": 1697,
      "빼": 1698,
      "빽": 1699,
      "뺀": 1700,
      "뺄": 1701,
      "뺏": 1702,
      "뺐": 1703,
      "뺨": 1704,
      "뻐": 1705,
      "뻑": 1706,
      "뻔": 1707,
      "뻗": 1708,
      "뻘": 1709,
      "뻤": 1710,
      "뻥": 1711,
      "뻬": 1712,
      "뼈": 1713,
      "뼉": 1714,
      "뼛": 1715,
      "뽀": 1716,
      "뽁": 1717,
      "뽐": 1718,
      "뽑": 1719,
      "뽕": 1720,
      "뾰": 1721,
      "뿅": 1722,
      "뿌": 1723,
      "뿍": 1724,
      "뿐": 1725,
      "뿔": 1726,
      "뿜": 1727,
      "쁘": 1728,
      "쁜": 1729,
      "쁠": 1730,
      "쁨": 1731,
      "쁩": 1732,
      "삐": 1733,
      "사": 1734,
      "삭": 1735,
      "산": 1736,
      "살": 1737,
      "삶": 1738,
      "삼": 1739,
      "삽": 1740,
      "삿": 1741,
      "샀": 1742,
      "상": 1743,
      "새": 1744,
      "색": 1745,
      "샌": 1746,
      "샐": 1747,
      "샘": 1748,
      "샙": 1749,
      "샛": 1750,
      "샜": 1751,
      "생": 1752,
      "샤": 1753,
      "샨": 1754,
      "샬": 1755,
      "샴": 1756,
      "샵": 1757,
      "샷": 1758,
      "샹": 1759,
      "섀": 1760,
      "섐": 1761,
      "서": 1762,
      "석": 1763,
      "섞": 1764,
      "선": 1765,
      "섣": 1766,
      "설": 1767,
      "섬": 1768,
      "섭": 1769,
      "섯": 1770,
      "섰": 1771,
      "성": 1772,
      "세": 1773,
      "섹": 1774,
      "센": 1775,
      "셀": 1776,
      "셈": 1777,
      "셉": 1778,
      "셋": 1779,
      "셌": 1780,
      "셍": 1781,
      "셔": 1782,
      "션": 1783,
      "셜": 1784,
      "셤": 1785,
      "셧": 1786,
      "셨": 1787,
      "셰": 1788,
      "셸": 1789,
      "소": 1790,
      "속": 1791,
      "솎": 1792,
      "손": 1793,
      "솔": 1794,
      "솜": 1795,
      "솝": 1796,
      "솟": 1797,
      "송": 1798,
      "솥": 1799,
      "솦": 1800,
      "솽": 1801,
      "쇄": 1802,
      "쇠": 1803,
      "쇤": 1804,
      "쇳": 1805,
      "쇼": 1806,
      "숄": 1807,
      "숍": 1808,
      "숏": 1809,
      "숑": 1810,
      "수": 1811,
      "숙": 1812,
      "순": 1813,
      "숟": 1814,
      "술": 1815,
      "숨": 1816,
      "숩": 1817,
      "숫": 1818,
      "숭": 1819,
      "숯": 1820,
      "숱": 1821,
      "숲": 1822,
      "숴": 1823,
      "쉐": 1824,
      "쉑": 1825,
      "쉔": 1826,
      "쉘": 1827,
      "쉥": 1828,
      "쉬": 1829,
      "쉰": 1830,
      "쉴": 1831,
      "쉼": 1832,
      "쉽": 1833,
      "슈": 1834,
      "슌": 1835,
      "슐": 1836,
      "슘": 1837,
      "슝": 1838,
      "스": 1839,
      "슨": 1840,
      "슬": 1841,
      "슭": 1842,
      "슴": 1843,
      "습": 1844,
      "슷": 1845,
      "승": 1846,
      "시": 1847,
      "식": 1848,
      "신": 1849,
      "싣": 1850,
      "실": 1851,
      "싫": 1852,
      "심": 1853,
      "십": 1854,
      "싯": 1855,
      "싱": 1856,
      "싶": 1857,
      "싸": 1858,
      "싹": 1859,
      "싼": 1860,
      "쌀": 1861,
      "쌈": 1862,
      "쌉": 1863,
      "쌌": 1864,
      "쌍": 1865,
      "쌓": 1866,
      "쌔": 1867,
      "쌘": 1868,
      "쌤": 1869,
      "쌩": 1870,
      "써": 1871,
      "썩": 1872,
      "썬": 1873,
      "썰": 1874,
      "썸": 1875,
      "썹": 1876,
      "썼": 1877,
      "썽": 1878,
      "쎄": 1879,
      "쎈": 1880,
      "쎌": 1881,
      "쏘": 1882,
      "쏙": 1883,
      "쏜": 1884,
      "쏟": 1885,
      "쏠": 1886,
      "쏭": 1887,
      "쏴": 1888,
      "쐈": 1889,
      "쐐": 1890,
      "쐬": 1891,
      "쑤": 1892,
      "쑥": 1893,
      "쑨": 1894,
      "쓰": 1895,
      "쓱": 1896,
      "쓴": 1897,
      "쓸": 1898,
      "씀": 1899,
      "씁": 1900,
      "씌": 1901,
      "씨": 1902,
      "씩": 1903,
      "씬": 1904,
      "씰": 1905,
      "씸": 1906,
      "씹": 1907,
      "씻": 1908,
      "씽": 1909,
      "아": 1910,
      "악": 1911,
      "안": 1912,
      "앉": 1913,
      "않": 1914,
      "알": 1915,
      "앓": 1916,
      "암": 1917,
      "압": 1918,
      "앗": 1919,
      "았": 1920,
      "앙": 1921,
      "앞": 1922,
      "애": 1923,
      "액": 1924,
      "앤": 1925,
      "앨": 1926,
      "앰": 1927,
      "앱": 1928,
      "앳": 1929,
      "앴": 1930,
      "앵": 1931,
      "야": 1932,
      "약": 1933,
      "얀": 1934,
      "얄": 1935,
      "얆": 1936,
      "얇": 1937,
      "얌": 1938,
      "얍": 1939,
      "얏": 1940,
      "양": 1941,
      "얕": 1942,
      "얗": 1943,
      "얘": 1944,
      "어": 1945,
      "억": 1946,
      "언": 1947,
      "얹": 1948,
      "얻": 1949,
      "얼": 1950,
      "얽": 1951,
      "엄": 1952,
      "업": 1953,
      "없": 1954,
      "엇": 1955,
      "었": 1956,
      "엉": 1957,
      "엊": 1958,
      "엌": 1959,
      "엎": 1960,
      "에": 1961,
      "엑": 1962,
      "엔": 1963,
      "엘": 1964,
      "엠": 1965,
      "엡": 1966,
      "엣": 1967,
      "엥": 1968,
      "여": 1969,
      "역": 1970,
      "엮": 1971,
      "연": 1972,
      "열": 1973,
      "엷": 1974,
      "염": 1975,
      "엽": 1976,
      "엿": 1977,
      "였": 1978,
      "영": 1979,
      "옅": 1980,
      "옆": 1981,
      "옇": 1982,
      "예": 1983,
      "옌": 1984,
      "옐": 1985,
      "옛": 1986,
      "오": 1987,
      "옥": 1988,
      "온": 1989,
      "올": 1990,
      "옭": 1991,
      "옮": 1992,
      "옳": 1993,
      "옴": 1994,
      "옵": 1995,
      "옷": 1996,
      "옹": 1997,
      "와": 1998,
      "왁": 1999,
      "완": 2000,
      "왈": 2001,
      "왑": 2002,
      "왓": 2003,
      "왔": 2004,
      "왕": 2005,
      "왜": 2006,
      "왠": 2007,
      "외": 2008,
      "왹": 2009,
      "왼": 2010,
      "요": 2011,
      "욕": 2012,
      "욘": 2013,
      "욜": 2014,
      "욤": 2015,
      "욥": 2016,
      "용": 2017,
      "우": 2018,
      "욱": 2019,
      "운": 2020,
      "욷": 2021,
      "울": 2022,
      "움": 2023,
      "웁": 2024,
      "웃": 2025,
      "웅": 2026,
      "워": 2027,
      "웍": 2028,
      "원": 2029,
      "월": 2030,
      "웜": 2031,
      "웠": 2032,
      "웡": 2033,
      "웨": 2034,
      "웬": 2035,
      "웰": 2036,
      "웸": 2037,
      "웹": 2038,
      "웻": 2039,
      "위": 2040,
      "윅": 2041,
      "윈": 2042,
      "윌": 2043,
      "윔": 2044,
      "윕": 2045,
      "윗": 2046,
      "윙": 2047,
      "유": 2048,
      "육": 2049,
      "윤": 2050,
      "율": 2051,
      "윱": 2052,
      "윳": 2053,
      "융": 2054,
      "으": 2055,
      "윽": 2056,
      "은": 2057,
      "을": 2058,
      "음": 2059,
      "읍": 2060,
      "읏": 2061,
      "응": 2062,
      "의": 2063,
      "읠": 2064,
      "이": 2065,
      "익": 2066,
      "인": 2067,
      "일": 2068,
      "읽": 2069,
      "잃": 2070,
      "임": 2071,
      "입": 2072,
      "잇": 2073,
      "있": 2074,
      "잉": 2075,
      "잊": 2076,
      "잎": 2077,
      "자": 2078,
      "작": 2079,
      "잔": 2080,
      "잖": 2081,
      "잘": 2082,
      "잠": 2083,
      "잡": 2084,
      "잣": 2085,
      "잤": 2086,
      "장": 2087,
      "잦": 2088,
      "재": 2089,
      "잭": 2090,
      "잰": 2091,
      "잼": 2092,
      "잽": 2093,
      "잿": 2094,
      "쟁": 2095,
      "쟈": 2096,
      "쟝": 2097,
      "쟤": 2098,
      "저": 2099,
      "적": 2100,
      "전": 2101,
      "절": 2102,
      "젊": 2103,
      "젋": 2104,
      "점": 2105,
      "접": 2106,
      "젓": 2107,
      "정": 2108,
      "젖": 2109,
      "제": 2110,
      "젝": 2111,
      "젠": 2112,
      "젤": 2113,
      "젬": 2114,
      "젭": 2115,
      "젯": 2116,
      "져": 2117,
      "젼": 2118,
      "졌": 2119,
      "조": 2120,
      "족": 2121,
      "존": 2122,
      "졸": 2123,
      "좀": 2124,
      "좁": 2125,
      "종": 2126,
      "좇": 2127,
      "좋": 2128,
      "좌": 2129,
      "좡": 2130,
      "좨": 2131,
      "죄": 2132,
      "죈": 2133,
      "죌": 2134,
      "죘": 2135,
      "죠": 2136,
      "죤": 2137,
      "주": 2138,
      "죽": 2139,
      "준": 2140,
      "줄": 2141,
      "줌": 2142,
      "줍": 2143,
      "줏": 2144,
      "중": 2145,
      "줘": 2146,
      "줬": 2147,
      "쥐": 2148,
      "쥔": 2149,
      "쥘": 2150,
      "쥬": 2151,
      "쥴": 2152,
      "즈": 2153,
      "즉": 2154,
      "즌": 2155,
      "즐": 2156,
      "즘": 2157,
      "즙": 2158,
      "증": 2159,
      "지": 2160,
      "직": 2161,
      "진": 2162,
      "질": 2163,
      "짊": 2164,
      "짐": 2165,
      "집": 2166,
      "짓": 2167,
      "징": 2168,
      "짖": 2169,
      "짙": 2170,
      "짚": 2171,
      "짜": 2172,
      "짝": 2173,
      "짠": 2174,
      "짤": 2175,
      "짦": 2176,
      "짧": 2177,
      "짬": 2178,
      "짭": 2179,
      "짰": 2180,
      "짱": 2181,
      "째": 2182,
      "쨉": 2183,
      "쨌": 2184,
      "쨍": 2185,
      "쨰": 2186,
      "쩌": 2187,
      "쩍": 2188,
      "쩐": 2189,
      "쩔": 2190,
      "쩜": 2191,
      "쩡": 2192,
      "쪄": 2193,
      "쪼": 2194,
      "쪽": 2195,
      "쫀": 2196,
      "쫄": 2197,
      "쫒": 2198,
      "쫓": 2199,
      "쫙": 2200,
      "쬐": 2201,
      "쭈": 2202,
      "쭉": 2203,
      "쭐": 2204,
      "쭙": 2205,
      "쭤": 2206,
      "쯔": 2207,
      "쯤": 2208,
      "쯧": 2209,
      "쯩": 2210,
      "찌": 2211,
      "찍": 2212,
      "찐": 2213,
      "찔": 2214,
      "찜": 2215,
      "찝": 2216,
      "찡": 2217,
      "찢": 2218,
      "차": 2219,
      "착": 2220,
      "찬": 2221,
      "찮": 2222,
      "찰": 2223,
      "참": 2224,
      "찹": 2225,
      "찻": 2226,
      "찼": 2227,
      "창": 2228,
      "찾": 2229,
      "챁": 2230,
      "채": 2231,
      "책": 2232,
      "챈": 2233,
      "챌": 2234,
      "챔": 2235,
      "챕": 2236,
      "챗": 2237,
      "챘": 2238,
      "챙": 2239,
      "챠": 2240,
      "챤": 2241,
      "처": 2242,
      "척": 2243,
      "천": 2244,
      "철": 2245,
      "첨": 2246,
      "첩": 2247,
      "첫": 2248,
      "첬": 2249,
      "청": 2250,
      "체": 2251,
      "첵": 2252,
      "첸": 2253,
      "첼": 2254,
      "쳇": 2255,
      "쳌": 2256,
      "쳐": 2257,
      "쳔": 2258,
      "쳤": 2259,
      "초": 2260,
      "촉": 2261,
      "촌": 2262,
      "촐": 2263,
      "촘": 2264,
      "촛": 2265,
      "총": 2266,
      "촣": 2267,
      "촨": 2268,
      "촬": 2269,
      "촹": 2270,
      "최": 2271,
      "쵸": 2272,
      "추": 2273,
      "축": 2274,
      "춘": 2275,
      "출": 2276,
      "춤": 2277,
      "춥": 2278,
      "춧": 2279,
      "충": 2280,
      "춰": 2281,
      "췄": 2282,
      "췌": 2283,
      "취": 2284,
      "췬": 2285,
      "췼": 2286,
      "츄": 2287,
      "츈": 2288,
      "츠": 2289,
      "측": 2290,
      "츰": 2291,
      "층": 2292,
      "치": 2293,
      "칙": 2294,
      "친": 2295,
      "칠": 2296,
      "칡": 2297,
      "침": 2298,
      "칩": 2299,
      "칫": 2300,
      "칭": 2301,
      "카": 2302,
      "칵": 2303,
      "칸": 2304,
      "칼": 2305,
      "캄": 2306,
      "캅": 2307,
      "캇": 2308,
      "캉": 2309,
      "캐": 2310,
      "캔": 2311,
      "캘": 2312,
      "캠": 2313,
      "캡": 2314,
      "캣": 2315,
      "캥": 2316,
      "캬": 2317,
      "커": 2318,
      "컥": 2319,
      "컨": 2320,
      "컫": 2321,
      "컬": 2322,
      "컴": 2323,
      "컵": 2324,
      "컷": 2325,
      "컸": 2326,
      "컽": 2327,
      "케": 2328,
      "켁": 2329,
      "켄": 2330,
      "켈": 2331,
      "켐": 2332,
      "켓": 2333,
      "켜": 2334,
      "켠": 2335,
      "켤": 2336,
      "켰": 2337,
      "코": 2338,
      "콕": 2339,
      "콘": 2340,
      "콜": 2341,
      "콤": 2342,
      "콥": 2343,
      "콧": 2344,
      "콩": 2345,
      "콬": 2346,
      "콰": 2347,
      "콴": 2348,
      "쾅": 2349,
      "쾌": 2350,
      "쾨": 2351,
      "쾰": 2352,
      "쿄": 2353,
      "쿠": 2354,
      "쿡": 2355,
      "쿤": 2356,
      "쿨": 2357,
      "쿰": 2358,
      "쿱": 2359,
      "쿵": 2360,
      "쿼": 2361,
      "퀀": 2362,
      "퀄": 2363,
      "퀘": 2364,
      "퀜": 2365,
      "퀴": 2366,
      "퀵": 2367,
      "퀸": 2368,
      "퀼": 2369,
      "큅": 2370,
      "큐": 2371,
      "큘": 2372,
      "큠": 2373,
      "크": 2374,
      "큰": 2375,
      "클": 2376,
      "큼": 2377,
      "큽": 2378,
      "킁": 2379,
      "키": 2380,
      "킥": 2381,
      "킨": 2382,
      "킬": 2383,
      "킴": 2384,
      "킵": 2385,
      "킷": 2386,
      "킹": 2387,
      "타": 2388,
      "탁": 2389,
      "탄": 2390,
      "탈": 2391,
      "탐": 2392,
      "탑": 2393,
      "탓": 2394,
      "탔": 2395,
      "탕": 2396,
      "태": 2397,
      "택": 2398,
      "탠": 2399,
      "탤": 2400,
      "탬": 2401,
      "탭": 2402,
      "탯": 2403,
      "탰": 2404,
      "탱": 2405,
      "탸": 2406,
      "터": 2407,
      "턱": 2408,
      "턴": 2409,
      "털": 2410,
      "텀": 2411,
      "텁": 2412,
      "텃": 2413,
      "텄": 2414,
      "텅": 2415,
      "테": 2416,
      "텍": 2417,
      "텐": 2418,
      "텔": 2419,
      "템": 2420,
      "텝": 2421,
      "텟": 2422,
      "텡": 2423,
      "텨": 2424,
      "텼": 2425,
      "톈": 2426,
      "토": 2427,
      "톡": 2428,
      "톤": 2429,
      "톨": 2430,
      "톰": 2431,
      "톱": 2432,
      "통": 2433,
      "톺": 2434,
      "퇀": 2435,
      "퇴": 2436,
      "투": 2437,
      "툭": 2438,
      "툰": 2439,
      "툴": 2440,
      "툼": 2441,
      "퉁": 2442,
      "퉈": 2443,
      "퉨": 2444,
      "튀": 2445,
      "튄": 2446,
      "튈": 2447,
      "튕": 2448,
      "튜": 2449,
      "튠": 2450,
      "튤": 2451,
      "튬": 2452,
      "트": 2453,
      "특": 2454,
      "튼": 2455,
      "튿": 2456,
      "틀": 2457,
      "틈": 2458,
      "틉": 2459,
      "틋": 2460,
      "틍": 2461,
      "틔": 2462,
      "틜": 2463,
      "티": 2464,
      "틱": 2465,
      "틴": 2466,
      "틸": 2467,
      "팀": 2468,
      "팁": 2469,
      "팃": 2470,
      "팅": 2471,
      "파": 2472,
      "팍": 2473,
      "팎": 2474,
      "판": 2475,
      "팔": 2476,
      "팜": 2477,
      "팝": 2478,
      "팟": 2479,
      "팠": 2480,
      "팡": 2481,
      "팥": 2482,
      "패": 2483,
      "팩": 2484,
      "팫": 2485,
      "팬": 2486,
      "팰": 2487,
      "팸": 2488,
      "팹": 2489,
      "팻": 2490,
      "팽": 2491,
      "퍈": 2492,
      "퍼": 2493,
      "펀": 2494,
      "펄": 2495,
      "펌": 2496,
      "펍": 2497,
      "펑": 2498,
      "페": 2499,
      "펙": 2500,
      "펜": 2501,
      "펠": 2502,
      "펨": 2503,
      "펩": 2504,
      "펫": 2505,
      "펭": 2506,
      "펴": 2507,
      "편": 2508,
      "펼": 2509,
      "폄": 2510,
      "폈": 2511,
      "평": 2512,
      "폐": 2513,
      "포": 2514,
      "폭": 2515,
      "폰": 2516,
      "폴": 2517,
      "폼": 2518,
      "폿": 2519,
      "퐁": 2520,
      "퐅": 2521,
      "표": 2522,
      "푯": 2523,
      "푸": 2524,
      "푹": 2525,
      "푼": 2526,
      "풀": 2527,
      "품": 2528,
      "풋": 2529,
      "풍": 2530,
      "퓌": 2531,
      "퓨": 2532,
      "퓰": 2533,
      "퓸": 2534,
      "프": 2535,
      "픅": 2536,
      "픈": 2537,
      "플": 2538,
      "픔": 2539,
      "픕": 2540,
      "피": 2541,
      "픽": 2542,
      "핀": 2543,
      "필": 2544,
      "핌": 2545,
      "핍": 2546,
      "핏": 2547,
      "핑": 2548,
      "하": 2549,
      "학": 2550,
      "한": 2551,
      "할": 2552,
      "핥": 2553,
      "함": 2554,
      "합": 2555,
      "핫": 2556,
      "항": 2557,
      "해": 2558,
      "핵": 2559,
      "핸": 2560,
      "핼": 2561,
      "햄": 2562,
      "햅": 2563,
      "햇": 2564,
      "했": 2565,
      "행": 2566,
      "햐": 2567,
      "햡": 2568,
      "향": 2569,
      "햬": 2570,
      "헀": 2571,
      "허": 2572,
      "헌": 2573,
      "헐": 2574,
      "험": 2575,
      "헙": 2576,
      "헛": 2577,
      "헝": 2578,
      "헤": 2579,
      "헥": 2580,
      "헨": 2581,
      "헬": 2582,
      "헷": 2583,
      "헹": 2584,
      "혀": 2585,
      "혁": 2586,
      "현": 2587,
      "혈": 2588,
      "혐": 2589,
      "협": 2590,
      "혓": 2591,
      "혔": 2592,
      "형": 2593,
      "혖": 2594,
      "혜": 2595,
      "호": 2596,
      "혹": 2597,
      "혼": 2598,
      "홀": 2599,
      "홈": 2600,
      "홉": 2601,
      "홋": 2602,
      "홍": 2603,
      "홑": 2604,
      "화": 2605,
      "확": 2606,
      "환": 2607,
      "홛": 2608,
      "활": 2609,
      "홧": 2610,
      "황": 2611,
      "회": 2612,
      "획": 2613,
      "횐": 2614,
      "횟": 2615,
      "횡": 2616,
      "효": 2617,
      "후": 2618,
      "훅": 2619,
      "훈": 2620,
      "훌": 2621,
      "훑": 2622,
      "훔": 2623,
      "훕": 2624,
      "훗": 2625,
      "훙": 2626,
      "훠": 2627,
      "훤": 2628,
      "훨": 2629,
      "훼": 2630,
      "휘": 2631,
      "휙": 2632,
      "휜": 2633,
      "휠": 2634,
      "휨": 2635,
      "휩": 2636,
      "휴": 2637,
      "휼": 2638,
      "흄": 2639,
      "흉": 2640,
      "흐": 2641,
      "흑": 2642,
      "흔": 2643,
      "흘": 2644,
      "흙": 2645,
      "흠": 2646,
      "흡": 2647,
      "흥": 2648,
      "흩": 2649,
      "희": 2650,
      "흰": 2651,
      "흽": 2652,
      "히": 2653,
      "힉": 2654,
      "힌": 2655,
      "힐": 2656,
      "힘": 2657,
      "힙": 2658,
      "힛": 2659,
      "힝": 2660,
      "ퟬ": 2661,
      "金": 2662,
      "來": 2663,
      "勞": 2664,
      "論": 2665,
      "不": 2666,
      "兩": 2667,
      "量": 2668,
      "女": 2669,
      "年": 2670,
      "聯": 2671,
      "靈": 2672,
      "率": 2673,
      "李": 2674,
      "茶": 2675,
      "＂": 2676,
      "＃": 2677,
      "％": 2678,
      "＆": 2679,
      "（": 2680,
      "）": 2681,
      "＋": 2682,
      "，": 2683,
      "－": 2684,
      "．": 2685,
      "：": 2686,
      "＜": 2687,
      "＝": 2688,
      "＞": 2689,
      "？": 2690,
      "Ａ": 2691,
      "Ｉ": 2692,
      "［": 2693,
      "］": 2694,
      "ａ": 2695,
      "ｇ": 2696,
      "ｍ": 2697,
      "ｔ": 2698,
      "｜": 2699,
      "～": 2700,
      "･": 2701,
      "�": 2702,
      "🎧": 2703,
      "으로": 2704,
      "했다": 2705,
      "에서": 2706,
      "있다": 2707,
      "하는": 2708,
      "이다": 2709,
      "하고": 2710,
      "00": 2711,
      "20": 2712,
      "한다": 2713,
      "니다": 2714,
      "지난": 2715,
      "기업": 2716,
      "있는": 2717,
      "이라": 2718,
      "까지": 2719,
      "사업": 2720,
      "시장": 2721,
      "서울": 2722,
      "투자": 2723,
      "면서": 2724,
      "부터": 2725,
      "한국": 2726,
      "습니다": 2727,
      "기술": 2728,
      "것으로": 2729,
      "비스": 2730,
      "금융": 2731,
      "제공": 2732,
      "통해": 2733,
      "적으로": 2734,
      "서비스": 2735,
      "10": 2736,
      "대한": 2737,
      "된다": 2738,
      "밝혔": 2739,
      "위해": 2740,
      "억원": 2741,
      "밝혔다": 2742,
      "들이": 2743,
      "적인": 2744,
      "개발": 2745,
      "연구": 2746,
      "국내": 2747,
      "하기": 2748,
      "가능": 2749,
      "지만": 2750,
      "기자": 2751,
      "가격": 2752,
      "보다": 2753,
      "정부": 2754,
      "19": 2755,
      "상승": 2756,
      "됐다": 2757,
      "30": 2758,
      "경제": 2759,
      "금리": 2760,
      "거래": 2761,
      "산업": 2762,
      "지원": 2763,
      "이라고": 2764,
      "말했다": 2765,
      "이어": 2766,
      "은행": 2767,
      "올해": 2768,
      "대표": 2769,
      "고객": 2770,
      "에는": 2771,
      "202": 2772,
      "이번": 2773,
      "000": 2774,
      "진행": 2775,
      "자는": 2776,
      "미국": 2777,
      "시스": 2778,
      "뉴스": 2779,
      "위한": 2780,
      "글로": 2781,
      "반기": 2782,
      "기준": 2783,
      "사진": 2784,
      "데이": 2785,
      "었다": 2786,
      "이후": 2787,
      "계획": 2788,
      "이상": 2789,
      "글로벌": 2790,
      "되는": 2791,
      "물가": 2792,
      "관계": 2793,
      "정보": 2794,
      "달러": 2795,
      "에게": 2796,
      "1일": 2797,
      "레이": 2798,
      "지난해": 2799,
      "상품": 2800,
      "지역": 2801,
      "제품": 2802,
      "성장": 2803,
      "하게": 2804,
      "확대": 2805,
      "판매": 2806,
      "하다": 2807,
      "최근": 2808,
      "예정": 2809,
      "장은": 2810,
      "삼성": 2811,
      "대비": 2812,
      "관련": 2813,
      "등을": 2814,
      "소비": 2815,
      "너지": 2816,
      "르면": 2817,
      "도록": 2818,
      "전망": 2819,
      "겠다": 2820,
      "세계": 2821,
      "이용": 2822,
      "프로": 2823,
      "다양": 2824,
      "에도": 2825,
      "기관": 2826,
      "환경": 2827,
      "시간": 2828,
      "전자": 2829,
      "상황": 2830,
      "함께": 2831,
      "관리": 2832,
      "따르면": 2833,
      "5일": 2834,
      "증가": 2835,
      "에너지": 2836,
      "하락": 2837,
      "공급": 2838,
      "전문": 2839,
      "대상": 2840,
      "다양한": 2841,
      "게임": 2842,
      "분기": 2843,
      "4일": 2844,
      "마트": 2845,
      "LG": 2846,
      "사용": 2847,
      "들의": 2848,
      "경기": 2849,
      "경우": 2850,
      "최대": 2851,
      "활용": 2852,
      "하며": 2853,
      "기록": 2854,
      "스트": 2855,
      "데이터": 2856,
      "업계": 2857,
      "운영": 2858,
      "규모": 2859,
      "대출": 2860,
      "회사": 2861,
      "카오": 2862,
      "정책": 2863,
      "50": 2864,
      "12": 2865,
      "카카오": 2866,
      "증권": 2867,
      "위원": 2868,
      "따라": 2869,
      "같은": 2870,
      "라이": 2871,
      "지난달": 2872,
      "6월": 2873,
      "필요": 2874,
      "우리": 2875,
      "때문": 2876,
      "11": 2877,
      "라인": 2878,
      "경영": 2879,
      "성을": 2880,
      "만원": 2881,
      "랜드": 2882,
      "았다": 2883,
      "지속": 2884,
      "들은": 2885,
      "AI": 2886,
      "인상": 2887,
      "수출": 2888,
      "설명": 2889,
      "플랫": 2890,
      "플랫폼": 2891,
      "들어": 2892,
      "성이": 2893,
      "대해": 2894,
      "지수": 2895,
      "디지": 2896,
      "2022": 2897,
      "에서는": 2898,
      "가장": 2899,
      "그룹": 2900,
      "생산": 2901,
      "하면": 2902,
      "디지털": 2903,
      "소비자": 2904,
      "바이": 2905,
      "로나": 2906,
      "이날": 2907,
      "자산": 2908,
      "력을": 2909,
      "수준": 2910,
      "전기": 2911,
      "현재": 2912,
      "교수": 2913,
      "평가": 2914,
      "수요": 2915,
      "반도": 2916,
      "코로나": 2917,
      "규제": 2918,
      "통신": 2919,
      "주택": 2920,
      "현대": 2921,
      "했다고": 2922,
      "주요": 2923,
      "되고": 2924,
      "졌다": 2925,
      "기간": 2926,
      "스타": 2927,
      "반도체": 2928,
      "파트": 2929,
      "발표": 2930,
      "분야": 2931,
      "연합": 2932,
      "회의": 2933,
      "이는": 2934,
      "중국": 2935,
      "분석": 2936,
      "출시": 2937,
      "안전": 2938,
      "SK": 2939,
      "플레이": 2940,
      "관계자는": 2941,
      "센터": 2942,
      "시작": 2943,
      "추진": 2944,
      "국제": 2945,
      "참여": 2946,
      "있도록": 2947,
      "업체": 2948,
      "입니다": 2949,
      "오는": 2950,
      "시스템": 2951,
      "40": 2952,
      "아이": 2953,
      "적용": 2954,
      "추가": 2955,
      "경쟁": 2956,
      "항공": 2957,
      "13": 2958,
      "회장": 2959,
      "해야": 2960,
      "으며": 2961,
      "하지": 2962,
      "예정이다": 2963,
      "최고": 2964,
      "특히": 2965,
      "15": 2966,
      "하면서": 2967,
      "100": 2968,
      "기대": 2969,
      "매출": 2970,
      "개선": 2971,
      "강화": 2972,
      "5월": 2973,
      "인트": 2974,
      "1년": 2975,
      "하겠다": 2976,
      "주가": 2977,
      "사회": 2978,
      "해외": 2979,
      "기반": 2980,
      "보험": 2981,
      "리는": 2982,
      "것이": 2983,
      "보고": 2984,
      "였다": 2985,
      "높은": 2986,
      "개월": 2987,
      "포인트": 2988,
      "러스": 2989,
      "우려": 2990,
      "예상": 2991,
      "협력": 2992,
      "만에": 2993,
      "기존": 2994,
      "하반기": 2995,
      "코스": 2996,
      "스마트": 2997,
      "18": 2998,
      "전략": 2999,
      "문제": 3000,
      "영상": 3001,
      "브랜드": 3002,
      "구축": 3003,
      "나타": 3004,
      "자동": 3005,
      "세대": 3006,
      "했습니다": 3007,
      "개인": 3008,
      "영향": 3009,
      "다는": 3010,
      "가치": 3011,
      "계획이다": 3012,
      "하나": 3013,
      "기를": 3014,
      "지는": 3015,
      "직원": 3016,
      "상반기": 3017,
      "이를": 3018,
      "콘텐": 3019,
      "실적": 3020,
      "아니": 3021,
      "사를": 3022,
      "결과": 3023,
      "KT": 3024,
      "시아": 3025,
      "부담": 3026,
      "7월": 3027,
      "코로나19": 3028,
      "자가": 3029,
      "17": 3030,
      "지고": 3031,
      "건설": 3032,
      "6일": 3033,
      "성과": 3034,
      "대로": 3035,
      "페이": 3036,
      "감소": 3037,
      "콘텐츠": 3038,
      "발생": 3039,
      "200": 3040,
      "혁신": 3041,
      "14": 3042,
      "장을": 3043,
      "사이": 3044,
      "가운": 3045,
      "연합뉴스": 3046,
      "교육": 3047,
      "23": 3048,
      "가운데": 3049,
      "대학": 3050,
      "연구원": 3051,
      "만큼": 3052,
      "라고": 3053,
      "한다고": 3054,
      "업무": 3055,
      "과학": 3056,
      "전력": 3057,
      "안정": 3058,
      "장관": 3059,
      "영업": 3060,
      "주식": 3061,
      "들을": 3062,
      "로운": 3063,
      "마련": 3064,
      "활동": 3065,
      "뉴시스": 3066,
      "전환": 3067,
      "확보": 3068,
      "미래": 3069,
      "국민": 3070,
      "수익": 3071,
      "60": 3072,
      "서비스를": 3073,
      "있어": 3074,
      "이에": 3075,
      "결제": 3076,
      "카드": 3077,
      "조사": 3078,
      "지를": 3079,
      "일본": 3080,
      "모두": 3081,
      "확인": 3082,
      "등의": 3083,
      "등이": 3084,
      "과정": 3085,
      "이라며": 3086,
      "동안": 3087,
      "목표": 3088,
      "신규": 3089,
      "보인": 3090,
      "평균": 3091,
      "적극": 3092,
      "위기": 3093,
      "것이다": 3094,
      "중소": 3095,
      "부산": 3096,
      "국가": 3097,
      "이나": 3098,
      "뉴스1": 3099,
      "발전": 3100,
      "위원회": 3101,
      "있다는": 3102,
      "대응": 3103,
      "22": 3104,
      "삼성전자": 3105,
      "이고": 3106,
      "공개": 3107,
      "아파트": 3108,
      "는데": 3109,
      "침체": 3110,
      "설명했다": 3111,
      "그램": 3112,
      "롯데": 3113,
      "다른": 3114,
      "방안": 3115,
      "점을": 3116,
      "많은": 3117,
      "세를": 3118,
      "공동": 3119,
      "중심": 3120,
      "사는": 3121,
      "25": 3122,
      "계약": 3123,
      "따른": 3124,
      "화를": 3125,
      "수학": 3126,
      "포함": 3127,
      "루션": 3128,
      "20년": 3129,
      "모델": 3130,
      "라는": 3131,
      "이미": 3132,
      "앞으로": 3133,
      "보유": 3134,
      "해당": 3135,
      "전국": 3136,
      "16": 3137,
      "구매": 3138,
      "제도": 3139,
      "열린": 3140,
      "24": 3141,
      "공공": 3142,
      "구성": 3143,
      "이라는": 3144,
      "하지만": 3145,
      "반영": 3146,
      "유지": 3147,
      "솔루션": 3148,
      "에서도": 3149,
      "내용": 3150,
      "전체": 3151,
      "조정": 3152,
      "부문": 3153,
      "스크": 3154,
      "SG": 3155,
      "방식": 3156,
      "온라인": 3157,
      "도입": 3158,
      "새로운": 3159,
      "29": 3160,
      "늘어": 3161,
      "식품": 3162,
      "이익": 3163,
      "한다는": 3164,
      "때문에": 3165,
      "플러스": 3166,
      "치를": 3167,
      "신한": 3168,
      "어려": 3169,
      "각각": 3170,
      "오후": 3171,
      "강조": 3172,
      "하이": 3173,
      "바이오": 3174,
      "부는": 3175,
      "선정": 3176,
      "것은": 3177,
      "자체": 3178,
      "부동": 3179,
      "공정": 3180,
      "요금": 3181,
      "기능": 3182,
      "운용": 3183,
      "비용": 3184,
      "떨어": 3185,
      "자리": 3186,
      "2020년": 3187,
      "자를": 3188,
      "부분": 3189,
      "현지": 3190,
      "현장": 3191,
      "다고": 3192,
      "등에": 3193,
      "스는": 3194,
      "서는": 3195,
      "우주": 3196,
      "할인": 3197,
      "부동산": 3198,
      "보호": 3199,
      "1만": 3200,
      "효과": 3201,
      "있습니다": 3202,
      "한편": 3203,
      "자동차": 3204,
      "인하": 3205,
      "전년": 3206,
      "3년": 3207,
      "대상으로": 3208,
      "벤트": 3209,
      "가상": 3210,
      "가구": 3211,
      "80": 3212,
      "수도": 3213,
      "유럽": 3214,
      "이벤트": 3215,
      "기획": 3216,
      "프로그램": 3217,
      "리고": 3218,
      "제로": 3219,
      "결정": 3220,
      "있다고": 3221,
      "성공": 3222,
      "3일": 3223,
      "구조": 3224,
      "비중": 3225,
      "그러": 3226,
      "신청": 3227,
      "가입": 3228,
      "오전": 3229,
      "처음": 3230,
      "없이": 3231,
      "일리": 3232,
      "시행": 3233,
      "기에": 3234,
      "준비": 3235,
      "수입": 3236,
      "아니라": 3237,
      "왔다": 3238,
      "도를": 3239,
      "도로": 3240,
      "코스피": 3241,
      "상을": 3242,
      "인터": 3243,
      "점검": 3244,
      "27": 3245,
      "가스": 3246,
      "등으로": 3247,
      "플레이션": 3248,
      "30일": 3249,
      "개최": 3250,
      "거나": 3251,
      "28": 3252,
      "향후": 3253,
      "비율": 3254,
      "자의": 3255,
      "역시": 3256,
      "주는": 3257,
      "참석": 3258,
      "자금": 3259,
      "여러": 3260,
      "행사": 3261,
      "장이": 3262,
      "버스": 3263,
      "리아": 3264,
      "생활": 3265,
      "여름": 3266,
      "경험": 3267,
      "보인다": 3268,
      "들과": 3269,
      "사람": 3270,
      "들에게": 3271,
      "원자": 3272,
      "원을": 3273,
      "대형": 3274,
      "비롯": 3275,
      "네이": 3276,
      "구글": 3277,
      "났다": 3278,
      "지금": 3279,
      "500": 3280,
      "핵심": 3281,
      "케이": 3282,
      "방향": 3283,
      "관심": 3284,
      "전문가": 3285,
      "증시": 3286,
      "2분기": 3287,
      "또한": 3288,
      "분양": 3289,
      "70": 3290,
      "데일리": 3291,
      "가지": 3292,
      "ESG": 3293,
      "협약": 3294,
      "오른": 3295,
      "사업을": 3296,
      "전시": 3297,
      "차량": 3298,
      "직접": 3299,
      "8월": 3300,
      "있을": 3301,
      "공간": 3302,
      "혜택": 3303,
      "유가": 3304,
      "그는": 3305,
      "기념": 3306,
      "이달": 3307,
      "상장": 3308,
      "건강": 3309,
      "신용": 3310,
      "제작": 3311,
      "대표는": 3312,
      "중요": 3313,
      "장기": 3314,
      "앞서": 3315,
      "메타": 3316,
      "소재": 3317,
      "KB": 3318,
      "원에": 3319,
      "co": 3320,
      "생각": 3321,
      "세가": 3322,
      "했고": 3323,
      "다시": 3324,
      "스토": 3325,
      "논의": 3326,
      "사의": 3327,
      "TV": 3328,
      "원전": 3329,
      "매수": 3330,
      "마이": 3331,
      "ne": 3332,
      "사가": 3333,
      "최초": 3334,
      "크게": 3335,
      "시설": 3336,
      "모든": 3337,
      "액은": 3338,
      "단계": 3339,
      "의료": 3340,
      "우드": 3341,
      "2년": 3342,
      "상태": 3343,
      "많이": 3344,
      "테크": 3345,
      "무역": 3346,
      "문화": 3347,
      "치료": 3348,
      "교통": 3349,
      "외국": 3350,
      "일부": 3351,
      "기록했다": 3352,
      "나라": 3353,
      "본부": 3354,
      "기가": 3355,
      "더욱": 3356,
      "5년": 3357,
      "리를": 3358,
      "모습": 3359,
      "중이다": 3360,
      "탄소": 3361,
      "없는": 3362,
      "수상": 3363,
      "도가": 3364,
      "받을": 3365,
      "기술을": 3366,
      "가는": 3367,
      "다만": 3368,
      "펀드": 3369,
      "바일": 3370,
      "모바일": 3371,
      "방문": 3372,
      "인플레이션": 3373,
      "본격": 3374,
      "네이버": 3375,
      "단지": 3376,
      "IT": 3377,
      "원으로": 3378,
      "유통": 3379,
      "일반": 3380,
      "법인": 3381,
      "기업의": 3382,
      "회를": 3383,
      "사실": 3384,
      "이런": 3385,
      "클라": 3386,
      "체계": 3387,
      "체결": 3388,
      "도시": 3389,
      "코인": 3390,
      "계속": 3391,
      "판단": 3392,
      "인수": 3393,
      "위를": 3394,
      "고려": 3395,
      "것을": 3396,
      "시장에서": 3397,
      "4월": 3398,
      "애플": 3399,
      "지수는": 3400,
      "협회": 3401,
      "프리": 3402,
      "여행": 3403,
      "는다": 3404,
      "높아": 3405,
      "가능한": 3406,
      "집중": 3407,
      "상승률": 3408,
      "지급": 3409,
      "가능성이": 3410,
      "량을": 3411,
      "러시아": 3412,
      "제조": 3413,
      "별로": 3414,
      "하기로": 3415,
      "처럼": 3416,
      "정부는": 3417,
      "자원": 3418,
      "선보": 3419,
      "자인": 3420,
      "통령": 3421,
      "가격이": 3422,
      "중인": 3423,
      "대통령": 3424,
      "번째": 3425,
      "했던": 3426,
      "노동": 3427,
      "IP": 3428,
      "력이": 3429,
      "없다": 3430,
      "최저": 3431,
      "클라우드": 3432,
      "지적": 3433,
      "진단": 3434,
      "위성": 3435,
      "전기차": 3436,
      "조합": 3437,
      "국토": 3438,
      "이동": 3439,
      "인천": 3440,
      "올랐": 3441,
      "이뤄": 3442,
      "요구": 3443,
      "투자자": 3444,
      "프트": 3445,
      "배터": 3446,
      "나온": 3447,
      "알려": 3448,
      "외환": 3449,
      "쇼핑": 3450,
      "사고": 3451,
      "드는": 3452,
      "스타트": 3453,
      "전용": 3454,
      "특별": 3455,
      "필요한": 3456,
      "프라": 3457,
      "받아": 3458,
      "중앙": 3459,
      "DB": 3460,
      "위험": 3461,
      "정부가": 3462,
      "인공": 3463,
      "해서": 3464,
      "제시": 3465,
      "금을": 3466,
      "합니다": 3467,
      "장비": 3468,
      "워크": 3469,
      "때문이다": 3470,
      "변화": 3471,
      "되면서": 3472,
      "역할": 3473,
      "이유": 3474,
      "보면": 3475,
      "연속": 3476,
      "ws": 3477,
      "통합": 3478,
      "가능하다": 3479,
      "강조했다": 3480,
      "공사": 3481,
      "대를": 3482,
      "암호": 3483,
      "디어": 3484,
      "스타트업": 3485,
      "비교": 3486,
      "원이": 3487,
      "마켓": 3488,
      "90": 3489,
      "렸다": 3490,
      "1조": 3491,
      "창업": 3492,
      "지능": 3493,
      "000억원": 3494,
      "완화": 3495,
      "의미": 3496,
      "현대차": 3497,
      "리티": 3498,
      "넘어": 3499,
      "is": 3500,
      "수요가": 3501,
      "유플러스": 3502,
      "CE": 3503,
      "노력": 3504,
      "우수": 3505,
      "전했다": 3506,
      "프로젝": 3507,
      "조치": 3508,
      "회장은": 3509,
      "체인": 3510,
      "er": 3511,
      "니스": 3512,
      "이하": 3513,
      "편의": 3514,
      "르게": 3515,
      "소득": 3516,
      "사장": 3517,
      "통계": 3518,
      "공장": 3519,
      "베이": 3520,
      "LG유플러스": 3521,
      "프로젝트": 3522,
      "인증": 3523,
      "3월": 3524,
      "제한": 3525,
      "실제": 3526,
      "협업": 3527,
      "코리아": 3528,
      "두고": 3529,
      "부가": 3530,
      "의견": 3531,
      "명이": 3532,
      "다음": 3533,
      "자료": 3534,
      "금리를": 3535,
      "중소기업": 3536,
      "간담": 3537,
      "있고": 3538,
      "금지": 3539,
      "또는": 3540,
      "파이": 3541,
      "교수는": 3542,
      "선택": 3543,
      "환율": 3544,
      "2022년": 3545,
      "당시": 3546,
      "2019": 3547,
      "스포": 3548,
      "이전": 3549,
      "통한": 3550,
      "가를": 3551,
      "종합": 3552,
      "해결": 3553,
      "중심으로": 3554,
      "리가": 3555,
      "민간": 3556,
      "원은": 3557,
      "기로": 3558,
      "노조": 3559,
      "진출": 3560,
      "차지": 3561,
      "통상": 3562,
      "보안": 3563,
      "메이": 3564,
      "확장": 3565,
      "검토": 3566,
      "상품을": 3567,
      "블록": 3568,
      "영향을": 3569,
      "그래": 3570,
      "시에": 3571,
      "ET": 3572,
      "효율": 3573,
      "기도": 3574,
      "내년": 3575,
      "받은": 3576,
      "나타났다": 3577,
      "방침": 3578,
      "사례": 3579,
      "이며": 3580,
      "확산": 3581,
      "26": 3582,
      "친환경": 3583,
      "37": 3584,
      "연구원은": 3585,
      "제공한다": 3586,
      "뱅크": 3587,
      "되지": 3588,
      "고용": 3589,
      "파트너": 3590,
      "으나": 3591,
      "포스": 3592,
      "물류": 3593,
      "에선": 3594,
      "35": 3595,
      "설립": 3596,
      "있게": 3597,
      "8년": 3598,
      "우크": 3599,
      "임금": 3600,
      "조직": 3601,
      "라이나": 3602,
      "메타버스": 3603,
      "2019년": 3604,
      "21": 3605,
      "테이": 3606,
      "지정": 3607,
      "이자": 3608,
      "9월": 3609,
      "수급": 3610,
      "위치": 3611,
      "우선": 3612,
      "품질": 3613,
      "웨어": 3614,
      "소프트": 3615,
      "연결": 3616,
      "외국인": 3617,
      "책임": 3618,
      "화된": 3619,
      "매매": 3620,
      "주의": 3621,
      "성능": 3622,
      "거래일": 3623,
      "네트": 3624,
      "배터리": 3625,
      "명을": 3626,
      "우크라이나": 3627,
      "com": 3628,
      "운송": 3629,
      "이노": 3630,
      "인력": 3631,
      "선을": 3632,
      "1분기": 3633,
      "물론": 3634,
      "실시": 3635,
      "원의": 3636,
      "작년": 3637,
      "방송": 3638,
      "5G": 3639,
      "7일": 3640,
      "정도": 3641,
      "않은": 3642,
      "상담": 3643,
      "수는": 3644,
      "기는": 3645,
      "제를": 3646,
      "역대": 3647,
      "케어": 3648,
      "회복": 3649,
      "오픈": 3650,
      "인재": 3651,
      "원에서": 3652,
      "종목": 3653,
      "연금": 3654,
      "했지만": 3655,
      "사전": 3656,
      "오르": 3657,
      "채널": 3658,
      "공급망": 3659,
      "설계": 3660,
      "공식": 3661,
      "석유": 3662,
      "300": 3663,
      "수행": 3664,
      "있으며": 3665,
      "유치": 3666,
      "피해": 3667,
      "스를": 3668,
      "FT": 3669,
      "기본": 3670,
      "여전": 3671,
      "원자재": 3672,
      "제약": 3673,
      "활성": 3674,
      "않고": 3675,
      "과학기술": 3676,
      "이용자": 3677,
      "라며": 3678,
      "줄어": 3679,
      "인정": 3680,
      "에어": 3681,
      "변동": 3682,
      "우리나라": 3683,
      "거리": 3684,
      "량이": 3685,
      "정상": 3686,
      "만들": 3687,
      "소비자물가": 3688,
      "점에서": 3689,
      "당국": 3690,
      "조성": 3691,
      "근로": 3692,
      "벤처": 3693,
      "되면": 3694,
      "마감": 3695,
      "스마트폰": 3696,
      "시장에": 3697,
      "제공하는": 3698,
      "이었다": 3699,
      "대구": 3700,
      "담당": 3701,
      "받고": 3702,
      "2만": 3703,
      "가능성": 3704,
      "품목": 3705,
      "나온다": 3706,
      "38": 3707,
      "정보를": 3708,
      "방법": 3709,
      "으면": 3710,
      "소개": 3711,
      "자로": 3712,
      "주목": 3713,
      "데이터를": 3714,
      "협의": 3715,
      "news": 3716,
      "측은": 3717,
      "받았다": 3718,
      "페인": 3719,
      "거래소": 3720,
      "2021년": 3721,
      "동기": 3722,
      "비즈": 3723,
      "제품을": 3724,
      "나가": 3725,
      "상당": 3726,
      "디자인": 3727,
      "화폐": 3728,
      "올라": 3729,
      "방안을": 3730,
      "반면": 3731,
      "in": 3732,
      "on": 3733,
      "전달": 3734,
      "복합": 3735,
      "오프": 3736,
      "표준": 3737,
      "오늘": 3738,
      "생태": 3739,
      "바탕": 3740,
      "참가": 3741,
      "newsis": 3742,
      "되며": 3743,
      "2030": 3744,
      "양자": 3745,
      "보고서": 3746,
      "가격은": 3747,
      "주도": 3748,
      "요인": 3749,
      "쳤다": 3750,
      "하여": 3751,
      "임직원": 3752,
      "정부의": 3753,
      "내부": 3754,
      "인프라": 3755,
      "11월": 3756,
      "재생": 3757,
      "금액": 3758,
      "에이": 3759,
      "그런": 3760,
      "분의": 3761,
      "영업이익": 3762,
      "4년": 3763,
      "변경": 3764,
      "인공지능": 3765,
      "억원으로": 3766,
      "앞으로도": 3767,
      "명의": 3768,
      "en": 3769,
      "활용해": 3770,
      "정보통신": 3771,
      "ST": 3772,
      "만들어": 3773,
      "치는": 3774,
      "근무": 3775,
      "집계": 3776,
      "매각": 3777,
      "상공": 3778,
      "공유": 3779,
      "마케": 3780,
      "담보": 3781,
      "인식": 3782,
      "제보": 3783,
      "조선": 3784,
      "빌리티": 3785,
      "취약": 3786,
      "수가": 3787,
      "나갈": 3788,
      "수주": 3789,
      "중단": 3790,
      "호텔": 3791,
      "기다": 3792,
      "공모": 3793,
      "000만": 3794,
      "간담회": 3795,
      "바탕으로": 3796,
      "광고": 3797,
      "단체": 3798,
      "2차": 3799,
      "199": 3800,
      "우려가": 3801,
      "업종": 3802,
      "기준으로": 3803,
      "to": 3804,
      "필요하다": 3805,
      "기여": 3806,
      "기업이": 3807,
      "감독": 3808,
      "텔레": 3809,
      "있지만": 3810,
      "입장": 3811,
      "규모의": 3812,
      "마케팅": 3813,
      "매도": 3814,
      "임대": 3815,
      "지분": 3816,
      "1월": 3817,
      "설치": 3818,
      "재무": 3819,
      "재정": 3820,
      "수를": 3821,
      "주유": 3822,
      "75": 3823,
      "기반으로": 3824,
      "세종": 3825,
      "강남": 3826,
      "공시": 3827,
      "지구": 3828,
      "10년": 3829,
      "수료": 3830,
      "NFT": 3831,
      "이사": 3832,
      "중구": 3833,
      "검증": 3834,
      "누리": 3835,
      "아직": 3836,
      "공공기관": 3837,
      "CJ": 3838,
      "등급": 3839,
      "발사": 3840,
      "네트워크": 3841,
      "진다": 3842,
      "부총": 3843,
      "이해": 3844,
      "억원을": 3845,
      "대책": 3846,
      "생태계": 3847,
      "주거": 3848,
      "수도권": 3849,
      "34": 3850,
      "들도": 3851,
      "영국": 3852,
      "학생": 3853,
      "촬영": 3854,
      "후보": 3855,
      "빠르게": 3856,
      "한화": 3857,
      "통화": 3858,
      "부품": 3859,
      "움을": 3860,
      "개정": 3861,
      "대부분": 3862,
      "제외": 3863,
      "주로": 3864,
      "보건": 3865,
      "an": 3866,
      "대전": 3867,
      "시장이": 3868,
      "서울대": 3869,
      "지방": 3870,
      "투자를": 3871,
      "모빌리티": 3872,
      "않는": 3873,
      "혜택을": 3874,
      "부족": 3875,
      "유류": 3876,
      "리스크": 3877,
      "이와": 3878,
      "사항": 3879,
      "시키": 3880,
      "찾아": 3881,
      "인터넷": 3882,
      "작업": 3883,
      "33": 3884,
      "전망이다": 3885,
      "밖에": 3886,
      "스토어": 3887,
      "같이": 3888,
      "나는": 3889,
      "차를": 3890,
      "었던": 3891,
      "지면서": 3892,
      "비트": 3893,
      "화학": 3894,
      "일까지": 3895,
      "사회적": 3896,
      "페이지": 3897,
      "al": 3898,
      "관광": 3899,
      "게이": 3900,
      "미디어": 3901,
      "달성": 3902,
      "가까": 3903,
      "먼트": 3904,
      "윤석": 3905,
      "자율": 3906,
      "큐브": 3907,
      "매장": 3908,
      "손실": 3909,
      "39": 3910,
      "형태": 3911,
      "점이": 3912,
      "이데일리": 3913,
      "CEO": 3914,
      "덧붙": 3915,
      "프리미": 3916,
      "캠페인": 3917,
      "청약": 3918,
      "수소": 3919,
      "대회": 3920,
      "시장의": 3921,
      "소통": 3922,
      "시장을": 3923,
      "병원": 3924,
      "주행": 3925,
      "인한": 3926,
      "처리": 3927,
      "전반": 3928,
      "텔레콤": 3929,
      "해양": 3930,
      "은행은": 3931,
      "비롯해": 3932,
      "방침이다": 3933,
      "..": 3934,
      "동시에": 3935,
      "디오": 3936,
      "앵커": 3937,
      "전자는": 3938,
      "부회장": 3939,
      "코스닥": 3940,
      "급등": 3941,
      "사태": 3942,
      "둔화": 3943,
      "이기": 3944,
      "했으며": 3945,
      "억달러": 3946,
      "PC": 3947,
      "있었다": 3948,
      "36": 3949,
      "왼쪽": 3950,
      "전쟁": 3951,
      "수익률": 3952,
      "현지시간": 3953,
      "활동을": 3954,
      "좋은": 3955,
      "가계": 3956,
      "감을": 3957,
      "윤석열": 3958,
      "조원": 3959,
      "주시": 3960,
      "맞춤": 3961,
      "ho": 3962,
      "채권": 3963,
      "하루": 3964,
      "주유소": 3965,
      "사와": 3966,
      "사업자": 3967,
      "올랐다": 3968,
      "역할을": 3969,
      "연계": 3970,
      "롭게": 3971,
      "받는": 3972,
      "이마트": 3973,
      "2018": 3974,
      "최초로": 3975,
      "인도": 3976,
      "과제": 3977,
      "작품": 3978,
      "전세": 3979,
      "체험": 3980,
      "만나": 3981,
      "여부": 3982,
      "차별": 3983,
      "아울": 3984,
      "그러나": 3985,
      "지가": 3986,
      "진행한다": 3987,
      "1위": 3988,
      "인해": 3989,
      "진흥": 3990,
      "45": 3991,
      "발행": 3992,
      "자본": 3993,
      "비즈니스": 3994,
      "끌어": 3995,
      "나서": 3996,
      "프리미엄": 3997,
      "나선": 3998,
      "MO": 3999,
      "사에서": 4000,
      "조건": 4001,
      "먼저": 4002,
      "최소": 4003,
      "예측": 4004,
      "하도록": 4005,
      "신고": 4006,
      "일정": 4007,
      "아시아": 4008,
      "라도": 4009,
      "장애": 4010,
      "자유": 4011,
      "필즈": 4012,
      "비상": 4013,
      "과의": 4014,
      "마다": 4015,
      "ar": 4016,
      "전날": 4017,
      "SM": 4018,
      "대면": 4019,
      "덧붙였다": 4020,
      "로부터": 4021,
      "리지": 4022,
      "자신": 4023,
      "IC": 4024,
      "각종": 4025,
      "임상": 4026,
      "어렵": 4027,
      "과정에서": 4028,
      "현실": 4029,
      "하려": 4030,
      "거쳐": 4031,
      "시대": 4032,
      "포스코": 4033,
      "지니": 4034,
      "상환": 4035,
      "SK텔레콤": 4036,
      "스가": 4037,
      "2018년": 4038,
      "금리가": 4039,
      "보증": 4040,
      "비해": 4041,
      "비전": 4042,
      "투자증권": 4043,
      "수산": 4044,
      "물을": 4045,
      "영역": 4046,
      "가상자산": 4047,
      "수수료": 4048,
      "GS": 4049,
      "하거나": 4050,
      "ETF": 4051,
      "식을": 4052,
      "아닌": 4053,
      "스의": 4054,
      "대체": 4055,
      "오프라인": 4056,
      "77": 4057,
      "권을": 4058,
      "자들이": 4059,
      "니까": 4060,
      "청년": 4061,
      "ED": 4062,
      "로드": 4063,
      "바로": 4064,
      "배출": 4065,
      "보내": 4066,
      "이상의": 4067,
      "어떤": 4068,
      "주문": 4069,
      "산업통상": 4070,
      "감염": 4071,
      "작용": 4072,
      "5000": 4073,
      "지도": 4074,
      "10월": 4075,
      "확실": 4076,
      "개의": 4077,
      "냈다": 4078,
      "뿐만": 4079,
      "전지": 4080,
      "중립": 4081,
      "대학교": 4082,
      "구체": 4083,
      "결합": 4084,
      "의무": 4085,
      "증가했다": 4086,
      "보장": 4087,
      "않을": 4088,
      "주파": 4089,
      "이미지": 4090,
      "가량": 4091,
      "기사": 4092,
      "아울러": 4093,
      "산업통상자원": 4094,
      "블록체인": 4095,
      "맞춰": 4096,
      "구현": 4097,
      "실시간": 4098,
      "전경": 4099,
      "48": 4100,
      "제출": 4101,
      "하우": 4102,
      "업무협약": 4103,
      "트를": 4104,
      "업계에": 4105,
      "모니": 4106,
      "예금": 4107,
      "내려": 4108,
      "LG전자": 4109,
      "활성화": 4110,
      "그린": 4111,
      "할당": 4112,
      "2일": 4113,
      "완료": 4114,
      "정기": 4115,
      "특징": 4116,
      "연구소": 4117,
      "운드": 4118,
      "상황이": 4119,
      "반대": 4120,
      "요청": 4121,
      "증가한": 4122,
      "독일": 4123,
      "섰다": 4124,
      "42": 4125,
      "퇴직": 4126,
      "내린": 4127,
      "쉽게": 4128,
      "이드": 4129,
      "보여": 4130,
      "상황에서": 4131,
      "공항": 4132,
      "활용한": 4133,
      "경쟁력": 4134,
      "장관은": 4135,
      "49": 4136,
      "것이라는": 4137,
      "보는": 4138,
      "나오": 4139,
      "것도": 4140,
      "미콘": 4141,
      "스와": 4142,
      "인데": 4143,
      "최종": 4144,
      "홍보": 4145,
      "한일": 4146,
      "하는데": 4147,
      "경기침체": 4148,
      "모집": 4149,
      "여성": 4150,
      "테슬": 4151,
      "부채": 4152,
      "주년": 4153,
      "하겠다는": 4154,
      "점유": 4155,
      "출범": 4156,
      "지하": 4157,
      "선도": 4158,
      "복지": 4159,
      "쌍용": 4160,
      "추정": 4161,
      "꾸준": 4162,
      "비롯한": 4163,
      "발굴": 4164,
      "보유한": 4165,
      "12월": 4166,
      "위는": 4167,
      "해도": 4168,
      "헬스": 4169,
      "가동": 4170,
      "센서": 4171,
      "예상된다": 4172,
      "상이": 4173,
      "라이브": 4174,
      "로봇": 4175,
      "흐름": 4176,
      "뛰어": 4177,
      "악화": 4178,
      "상황을": 4179,
      "기회": 4180,
      "렇게": 4181,
      "웨이": 4182,
      "가격을": 4183,
      "자에게": 4184,
      "양성": 4185,
      "발표한": 4186,
      "연료": 4187,
      "이스": 4188,
      "관측": 4189,
      "인기": 4190,
      "조달": 4191,
      "정비": 4192,
      "시민": 4193,
      "않았다": 4194,
      "상위": 4195,
      "국내외": 4196,
      "레미콘": 4197,
      "1000": 4198,
      "SD": 4199,
      "시험": 4200,
      "유류세": 4201,
      "되어": 4202,
      "지표": 4203,
      "모니터": 4204,
      "량은": 4205,
      "재판매": 4206,
      "리츠": 4207,
      "바이러스": 4208,
      "재생에너지": 4209,
      "페이스": 4210,
      "겠습니다": 4211,
      "웹툰": 4212,
      "경쟁력을": 4213,
      "약품": 4214,
      "있는데": 4215,
      "여전히": 4216,
      "크로": 4217,
      "건축": 4218,
      "전월": 4219,
      "튜브": 4220,
      "현황": 4221,
      "2월": 4222,
      "고도": 4223,
      "폭이": 4224,
      "급증": 4225,
      "8일": 4226,
      "지상": 4227,
      "지속적으로": 4228,
      "플라": 4229,
      "신설": 4230,
      "부진": 4231,
      "기능을": 4232,
      "59": 4233,
      "독자": 4234,
      "봤다": 4235,
      "부담을": 4236,
      "어려운": 4237,
      "됩니다": 4238,
      "채용": 4239,
      "하기도": 4240,
      "늘어난": 4241,
      "대신": 4242,
      "사무": 4243,
      "과기": 4244,
      "학과": 4245,
      "개발한": 4246,
      "1억": 4247,
      "3만": 4248,
      "SR": 4249,
      "스테이": 4250,
      "인사": 4251,
      "농협": 4252,
      "액이": 4253,
      "파업": 4254,
      "리즈": 4255,
      "주주": 4256,
      "총괄": 4257,
      "해제": 4258,
      "내놓": 4259,
      "동물": 4260,
      "울산": 4261,
      "탑재": 4262,
      "44": 4263,
      "낮은": 4264,
      "누적": 4265,
      "점유율": 4266,
      "정책을": 4267,
      "골프": 4268,
      "대규모": 4269,
      "동향": 4270,
      "불어": 4271,
      "비트코인": 4272,
      "희망": 4273,
      "52": 4274,
      "at": 4275,
      "와의": 4276,
      "나노": 4277,
      "홈페이지": 4278,
      "위원장": 4279,
      "포트": 4280,
      "그동안": 4281,
      "심사": 4282,
      "제주": 4283,
      "재산": 4284,
      "푸드": 4285,
      "안내": 4286,
      "차세대": 4287,
      "은행의": 4288,
      "준이": 4289,
      "시장은": 4290,
      "등록": 4291,
      "연간": 4292,
      "주가가": 4293,
      "영상을": 4294,
      "했다는": 4295,
      "처음으로": 4296,
      "예방": 4297,
      "오피": 4298,
      "시스템을": 4299,
      "리스": 4300,
      "프레": 4301,
      "급락": 4302,
      "트렌": 4303,
      "알려졌다": 4304,
      "57": 4305,
      "수록": 4306,
      "것이라고": 4307,
      "1일부터": 4308,
      "고객에게": 4309,
      "OT": 4310,
      "lo": 4311,
      "3분기": 4312,
      "IS": 4313,
      "인을": 4314,
      "거래를": 4315,
      "유니": 4316,
      "고객의": 4317,
      "가전": 4318,
      "공감": 4319,
      "설비": 4320,
      "업데이": 4321,
      "원하는": 4322,
      "정통": 4323,
      "지에": 4324,
      "5만": 4325,
      "창출": 4326,
      "파악": 4327,
      "지원을": 4328,
      "란드": 4329,
      "소유": 4330,
      "완성": 4331,
      "발표했다": 4332,
      "17년": 4333,
      "07": 4334,
      "드러": 4335,
      "학교": 4336,
      "배송": 4337,
      "외부": 4338,
      "맞춤형": 4339,
      "데믹": 4340,
      "월드": 4341,
      "차질": 4342,
      "금융감독": 4343,
      "31": 4344,
      "경험을": 4345,
      "재단": 4346,
      "않아": 4347,
      "유튜브": 4348,
      "하락했다": 4349,
      "기획재": 4350,
      "움이": 4351,
      "살펴": 4352,
      "카메": 4353,
      "하락한": 4354,
      "지수가": 4355,
      "만의": 4356,
      "시리즈": 4357,
      "육성": 4358,
      "융합": 4359,
      "이러": 4360,
      "인이": 4361,
      "84": 4362,
      "손해": 4363,
      "차이": 4364,
      "발언": 4365,
      "NA": 4366,
      "성장을": 4367,
      "6개월": 4368,
      "립니다": 4369,
      "이제": 4370,
      "화물": 4371,
      "상의": 4372,
      "입주": 4373,
      "위축": 4374,
      "수준으로": 4375,
      "늘었다": 4376,
      "세포": 4377,
      "소프트웨어": 4378,
      "그리고": 4379,
      "했는데": 4380,
      "패키": 4381,
      "Ne": 4382,
      "과거": 4383,
      "규정": 4384,
      "제고": 4385,
      "결국": 4386,
      "돌아": 4387,
      "재개": 4388,
      "비중이": 4389,
      "기기": 4390,
      "LED": 4391,
      "목소": 4392,
      "원유": 4393,
      "가치를": 4394,
      "해소": 4395,
      "어떻": 4396,
      "관련해": 4397,
      "신뢰": 4398,
      "있기": 4399,
      "적극적으로": 4400,
      "불가": 4401,
      "성과를": 4402,
      "2000": 4403,
      "소상공": 4404,
      "방식으로": 4405,
      "만든": 4406,
      "안을": 4407,
      "감사": 4408,
      "심의": 4409,
      "계약을": 4410,
      "에스": 4411,
      "사업에": 4412,
      "카메라": 4413,
      "휘발": 4414,
      "제공할": 4415,
      "달라": 4416,
      "개편": 4417,
      "생명": 4418,
      "조금": 4419,
      "상용": 4420,
      "열고": 4421,
      "민국": 4422,
      "보도": 4423,
      "회의를": 4424,
      "7년": 4425,
      "커뮤": 4426,
      "여러분의": 4427,
      "간의": 4428,
      "암호화폐": 4429,
      "계열": 4430,
      "돌파": 4431,
      "수의": 4432,
      "제기": 4433,
      "인지": 4434,
      "커뮤니": 4435,
      "백화": 4436,
      "언론": 4437,
      "자사": 4438,
      "협력을": 4439,
      "기업들이": 4440,
      "실적을": 4441,
      "사로": 4442,
      "대한민국": 4443,
      "디스": 4444,
      "미국의": 4445,
      "에너지솔루션": 4446,
      "KT는": 4447,
      "1천": 4448,
      "시가": 4449,
      "이번에": 4450,
      "치료제": 4451,
      "테슬라": 4452,
      "원장은": 4453,
      "뉴욕": 4454,
      "전해": 4455,
      "필수": 4456,
      "2017년": 4457,
      "상호": 4458,
      "션을": 4459,
      "은행이": 4460,
      "경유": 4461,
      "기후": 4462,
      "안에": 4463,
      "스포츠": 4464,
      "스튜": 4465,
      "자연": 4466,
      "최적": 4467,
      "부담이": 4468,
      "중요한": 4469,
      "99": 4470,
      "진입": 4471,
      "정보보호": 4472,
      "콘텐츠를": 4473,
      "겠다는": 4474,
      "무리": 4475,
      "기업으로": 4476,
      "관은": 4477,
      "백신": 4478,
      "주장": 4479,
      "st": 4480,
      "한은": 4481,
      "의약품": 4482,
      "이야": 4483,
      "률이": 4484,
      "어떻게": 4485,
      "움직": 4486,
      "헬스케어": 4487,
      "re": 4488,
      "매년": 4489,
      "엔터": 4490,
      "비대면": 4491,
      "차례": 4492,
      "과학기술정보통신": 4493,
      "설명이다": 4494,
      "파이낸": 4495,
      "국토교통": 4496,
      "58": 4497,
      "금감": 4498,
      "정확": 4499,
      "주관": 4500,
      "다가": 4501,
      "주력": 4502,
      "고객이": 4503,
      "휘발유": 4504,
      "고민": 4505,
      "낮아": 4506,
      "달리": 4507,
      "더라도": 4508,
      "원장": 4509,
      "카카오톡": 4510,
      "확인할": 4511,
      "선언": 4512,
      "접근": 4513,
      "료를": 4514,
      "리드": 4515,
      "커머": 4516,
      "과기정통": 4517,
      "46": 4518,
      "확정": 4519,
      "티브": 4520,
      "매입": 4521,
      "점에": 4522,
      "그룹은": 4523,
      "분야에서": 4524,
      "주파수": 4525,
      "이러한": 4526,
      "일을": 4527,
      "내고": 4528,
      "자와": 4529,
      "전을": 4530,
      "합의": 4531,
      "32": 4532,
      "hoto": 4533,
      "삼성전자는": 4534,
      "것이란": 4535,
      "르는": 4536,
      "리어": 4537,
      "문을": 4538,
      "유동": 4539,
      "즐길": 4540,
      "계획을": 4541,
      "IM": 4542,
      "긴축": 4543,
      "기아": 4544,
      "리서": 4545,
      "치솟": 4546,
      "커피": 4547,
      "LG에너지솔루션": 4548,
      "보였다": 4549,
      "사장은": 4550,
      "지배": 4551,
      "취득": 4552,
      "반응": 4553,
      "photo": 4554,
      "리오": 4555,
      "포함한": 4556,
      "NH": 4557,
      "ic": 4558,
      "서를": 4559,
      "부처": 4560,
      "상대": 4561,
      "수치": 4562,
      "특정": 4563,
      "경기도": 4564,
      "목표로": 4565,
      "그룹의": 4566,
      "SW": 4567,
      "부에": 4568,
      "아래": 4569,
      "장중": 4570,
      "95": 4571,
      "자회사": 4572,
      "폭을": 4573,
      "여기에": 4574,
      "상승했다": 4575,
      "인근": 4576,
      "스튜디오": 4577,
      "점은": 4578,
      "허브": 4579,
      "기획재정부": 4580,
      "수립": 4581,
      "역량을": 4582,
      "위로": 4583,
      "언급": 4584,
      "첨단": 4585,
      "었습니다": 4586,
      "MZ": 4587,
      "면적": 4588,
      "하던": 4589,
      "금융투자": 4590,
      "탄소중립": 4591,
      "68": 4592,
      "트렌드": 4593,
      "필요가": 4594,
      "스로": 4595,
      "연구개발": 4596,
      "가고": 4597,
      "관심이": 4598,
      "기금": 4599,
      "테인": 4600,
      "소상공인": 4601,
      "공연": 4602,
      "요약": 4603,
      "하향": 4604,
      "대화": 4605,
      "미만": 4606,
      "이슈": 4607,
      "획득": 4608,
      "유사": 4609,
      "충전": 4610,
      "전망했다": 4611,
      "보이고": 4612,
      "적자": 4613,
      "le": 4614,
      "외에도": 4615,
      "주를": 4616,
      "초기": 4617,
      "회원": 4618,
      "기업은": 4619,
      "이벤트를": 4620,
      "태양": 4621,
      "위반": 4622,
      "제휴": 4623,
      "78": 4624,
      "내는": 4625,
      "운동": 4626,
      "달러로": 4627,
      "릭터": 4628,
      "신속": 4629,
      "불확실": 4630,
      "위가": 4631,
      "지지": 4632,
      "캐릭터": 4633,
      "한국의": 4634,
      "시작으로": 4635,
      "꾸준히": 4636,
      "매우": 4637,
      "트리": 4638,
      "패션": 4639,
      "청소": 4640,
      "시즌": 4641,
      "에셋": 4642,
      "적립": 4643,
      "린다": 4644,
      "별도": 4645,
      "신호": 4646,
      "올리": 4647,
      "아웃": 4648,
      "제가": 4649,
      "이용할": 4650,
      "부총리": 4651,
      "65": 4652,
      "DC": 4653,
      "내다": 4654,
      "상승률이": 4655,
      "더불어": 4656,
      "상생": 4657,
      "제공하고": 4658,
      "선물": 4659,
      "의견을": 4660,
      "전에": 4661,
      "누리호": 4662,
      "4만": 4663,
      "포럼": 4664,
      "맞아": 4665,
      "서울시": 4666,
      "인앱": 4667,
      "컨설": 4668,
      "재해": 4669,
      "테인먼트": 4670,
      "29일": 4671,
      "등은": 4672,
      "준다": 4673,
      "기초": 4674,
      "박람": 4675,
      "행정": 4676,
      "완전": 4677,
      "집계됐다": 4678,
      "1차": 4679,
      "절차": 4680,
      "출발": 4681,
      "2030년": 4682,
      "AM": 4683,
      "검사": 4684,
      "계좌": 4685,
      "스터": 4686,
      "제안": 4687,
      "측면": 4688,
      "역량": 4689,
      "문제가": 4690,
      "고속": 4691,
      "등도": 4692,
      "목적": 4693,
      "위에": 4694,
      "최신": 4695,
      "기록한": 4696,
      "되기": 4697,
      "없어": 4698,
      "여건": 4699,
      "철도": 4700,
      "명으로": 4701,
      "갖고": 4702,
      "개국": 4703,
      "스텝": 4704,
      "않았": 4705,
      "수준이다": 4706,
      "고물가": 4707,
      "넘게": 4708,
      "넘는": 4709,
      "재고": 4710,
      "증정": 4711,
      "추가로": 4712,
      "결과를": 4713,
      "필즈상": 4714,
      "률을": 4715,
      "장관이": 4716,
      "공단": 4717,
      "기부": 4718,
      "대가": 4719,
      "3개월": 4720,
      "가족": 4721,
      "과정을": 4722,
      "감축": 4723,
      "기구": 4724,
      "새롭게": 4725,
      "마음": 4726,
      "이름": 4727,
      "OTT": 4728,
      "시각": 4729,
      "중한": 4730,
      "6년": 4731,
      "나고": 4732,
      "이른": 4733,
      "고리": 4734,
      "부회장은": 4735,
      "의도": 4736,
      "전시회": 4737,
      "긍정": 4738,
      "광주": 4739,
      "커지고": 4740,
      "리서치": 4741,
      "유명": 4742,
      "PG": 4743,
      "제보를": 4744,
      "기다립니다": 4745,
      "2천": 4746,
      "대중": 4747,
      "요소": 4748,
      "보다는": 4749,
      "관한": 4750,
      "세로": 4751,
      "순환": 4752,
      "마감했다": 4753,
      "파크": 4754,
      "평가를": 4755,
      "회의에서": 4756,
      "설정": 4757,
      "물질": 4758,
      "접수": 4759,
      "주고": 4760,
      "스트리": 4761,
      "단순": 4762,
      "합리": 4763,
      "기업에": 4764,
      "이내": 4765,
      "BS": 4766,
      "높다": 4767,
      "말까지": 4768,
      "개발을": 4769,
      "단기": 4770,
      "이렇게": 4771,
      "치고": 4772,
      "허준이": 4773,
      "운영하는": 4774,
      "수준의": 4775,
      "마쳤다": 4776,
      "재계": 4777,
      "충분": 4778,
      "it": 4779,
      "였던": 4780,
      "자이": 4781,
      "등에서": 4782,
      "테일": 4783,
      "국민의": 4784,
      "커머스": 4785,
      "컨설팅": 4786,
      "검색": 4787,
      "고객을": 4788,
      "효과를": 4789,
      "상한": 4790,
      "질환": 4791,
      "기업을": 4792,
      "전경련": 4793,
      "성에": 4794,
      "게임즈": 4795,
      "영향으로": 4796,
      "유로": 4797,
      "전망이": 4798,
      "체계를": 4799,
      "ed": 4800,
      "면제": 4801,
      "주간": 4802,
      "토레": 4803,
      "파이낸셜": 4804,
      "메뉴": 4805,
      "그러면서": 4806,
      "인앱결제": 4807,
      "도는": 4808,
      "67": 4809,
      "지적했다": 4810,
      "백화점": 4811,
      "동일": 4812,
      "실질": 4813,
      "3개": 4814,
      "분석했다": 4815,
      "가정": 4816,
      "연방": 4817,
      "트는": 4818,
      "하겠다고": 4819,
      "디아": 4820,
      "부와": 4821,
      "연준": 4822,
      "투입": 4823,
      "KAI": 4824,
      "라마": 4825,
      "스틱": 4826,
      "상황이다": 4827,
      "제일": 4828,
      "모니터링": 4829,
      "저렴": 4830,
      "2300": 4831,
      "가속": 4832,
      "관에서": 4833,
      "이들": 4834,
      "문제를": 4835,
      "에만": 4836,
      "추경": 4837,
      "추천": 4838,
      "해왔다": 4839,
      "그런데": 4840,
      "EC": 4841,
      "동반": 4842,
      "투명": 4843,
      "수준을": 4844,
      "비중은": 4845,
      "무역수": 4846,
      "시청": 4847,
      "실제로": 4848,
      "79": 4849,
      "일부터": 4850,
      "프로그램을": 4851,
      "실천": 4852,
      "여파": 4853,
      "예비": 4854,
      "금융당국": 4855,
      "다운": 4856,
      "서울경제": 4857,
      "박람회": 4858,
      "BC": 4859,
      "누구": 4860,
      "비슷": 4861,
      "만족": 4862,
      "수신": 4863,
      "자산운용": 4864,
      "절반": 4865,
      "오피스": 4866,
      "있었": 4867,
      "00원": 4868,
      "라이프": 4869,
      "편리": 4870,
      "배당": 4871,
      "보이": 4872,
      "절감": 4873,
      "64": 4874,
      "갖춘": 4875,
      "스탠": 4876,
      "테스트": 4877,
      "관심을": 4878,
      "풀이": 4879,
      "인의": 4880,
      "중고": 4881,
      "불안": 4882,
      "대해서는": 4883,
      "UV": 4884,
      "예약": 4885,
      "케이션": 4886,
      "비판": 4887,
      "소식": 4888,
      "특허": 4889,
      "DA": 4890,
      "힘을": 4891,
      "관계자": 4892,
      "배경": 4893,
      "오름": 4894,
      "내용을": 4895,
      "기조": 4896,
      "빠른": 4897,
      "앞두고": 4898,
      "행복": 4899,
      "퇴직연금": 4900,
      "응답": 4901,
      "이행": 4902,
      "하자": 4903,
      "지원하는": 4904,
      "사업장": 4905,
      "떨어졌다": 4906,
      "기사내용": 4907,
      "나왔다": 4908,
      "란다": 4909,
      "으로써": 4910,
      "대표이사": 4911,
      "진행하고": 4912,
      "환경을": 4913,
      "않다": 4914,
      "개발에": 4915,
      "가진": 4916,
      "대형마트": 4917,
      "커뮤니티": 4918,
      "음식": 4919,
      "화면": 4920,
      "시작했다": 4921,
      "3억": 4922,
      "널리": 4923,
      "취임": 4924,
      "기업들의": 4925,
      "경영자": 4926,
      "기반의": 4927,
      "레드": 4928,
      "무료": 4929,
      "신세계": 4930,
      "프로모": 4931,
      "2008년": 4932,
      "줄어들": 4933,
      "건의": 4934,
      "인구": 4935,
      "연장": 4936,
      "하이닉": 4937,
      "집값": 4938,
      "간편": 4939,
      "베트": 4940,
      "방역": 4941,
      "환자": 4942,
      "교수가": 4943,
      "가까이": 4944,
      "큐브위성": 4945,
      "디스플레이": 4946,
      "통계청": 4947,
      "휴가": 4948,
      "열차": 4949,
      "계층": 4950,
      "대외": 4951,
      "취업": 4952,
      "허용": 4953,
      "밝혔습니다": 4954,
      "업무를": 4955,
      "제조사": 4956,
      "베트남": 4957,
      "바란다": 4958,
      "위치한": 4959,
      "애로": 4960,
      "율이": 4961,
      "사용자": 4962,
      "회장이": 4963,
      "대에": 4964,
      "회사는": 4965,
      "급격": 4966,
      "선호": 4967,
      "채무": 4968,
      "농업": 4969,
      "됐습니다": 4970,
      "매일": 4971,
      "유입": 4972,
      "초과": 4973,
      "기대된다": 4974,
      "추경호": 4975,
      "85": 4976,
      "공업": 4977,
      "에코": 4978,
      "전장": 4979,
      "포르": 4980,
      "향상": 4981,
      "SK하이닉": 4982,
      "28일": 4983,
      "달러를": 4984,
      "씨는": 4985,
      "베스트": 4986,
      "현금": 4987,
      "분야의": 4988,
      "ent": 4989,
      "2억": 4990,
      "서도": 4991,
      "더해": 4992,
      "유행": 4993,
      "토지": 4994,
      "3000": 4995,
      "주당": 4996,
      "감소했다": 4997,
      "크다": 4998,
      "증권사": 4999,
      "96": 5000,
      "실현": 5001,
      "가능성을": 5002,
      "국회": 5003,
      "부터는": 5004,
      "전략을": 5005,
      "NS": 5006,
      "공격": 5007,
      "률은": 5008,
      "2025년": 5009,
      "아이폰": 5010,
      "그렇": 5011,
      "주민": 5012,
      "으로는": 5013,
      "항공우주": 5014,
      "5개": 5015,
      "CC": 5016,
      "학습": 5017,
      "쌍용차": 5018,
      "3천": 5019,
      "전보다": 5020,
      "테라": 5021,
      "2023년": 5022,
      "업계의": 5023,
      "장기화": 5024,
      "감이": 5025,
      "과도": 5026,
      "라면": 5027,
      "했으나": 5028,
      "미래에셋": 5029,
      "편의점": 5030,
      "동월": 5031,
      "방지": 5032,
      "감안": 5033,
      "마지": 5034,
      "부과": 5035,
      "분위기": 5036,
      "수밖에": 5037,
      "제어": 5038,
      "고등": 5039,
      "공정거래": 5040,
      "사인": 5041,
      "스턴": 5042,
      "일이": 5043,
      "작가": 5044,
      "지연": 5045,
      "플릭": 5046,
      "16년": 5047,
      "고려해": 5048,
      "MZ세대": 5049,
      "or": 5050,
      "지식": 5051,
      "타워": 5052,
      "경북": 5053,
      "배달": 5054,
      "종료": 5055,
      "전기요금": 5056,
      "효과가": 5057,
      "1회": 5058,
      "공략": 5059,
      "행사를": 5060,
      "DP": 5061,
      "건물": 5062,
      "진료": 5063,
      "AP": 5064,
      "기회를": 5065,
      "불과": 5066,
      "상무": 5067,
      "스티": 5068,
      "양국": 5069,
      "전면": 5070,
      "기업인": 5071,
      "94": 5072,
      "ck": 5073,
      "능력": 5074,
      "세다": 5075,
      "외식": 5076,
      "00만": 5077,
      "산업통상자원부": 5078,
      "기업과": 5079,
      "특징이다": 5080,
      "MW": 5081,
      "시작한": 5082,
      "기대한다": 5083,
      "6개": 5084,
      "데일리안": 5085,
      "ion": 5086,
      "건을": 5087,
      "연동": 5088,
      "유일": 5089,
      "적자를": 5090,
      "산업의": 5091,
      "사진은": 5092,
      "기계": 5093,
      "어느": 5094,
      "원인": 5095,
      "지로": 5096,
      "하다는": 5097,
      "주가는": 5098,
      "이유로": 5099,
      "NG": 5100,
      "넷플릭": 5101,
      "화제": 5102,
      "금융권": 5103,
      "이어질": 5104,
      "당첨": 5105,
      "시범": 5106,
      "쿠팡": 5107,
      "업데이트": 5108,
      "47": 5109,
      "리더": 5110,
      "승인": 5111,
      "안전보건": 5112,
      "차별화된": 5113,
      "장치": 5114,
      "홀딩": 5115,
      "우수한": 5116,
      "간담회에서": 5117,
      "DX": 5118,
      "나섰다": 5119,
      "멤버": 5120,
      "소중한": 5121,
      "2개": 5122,
      "5천": 5123,
      "확진": 5124,
      "사실상": 5125,
      "너무": 5126,
      "적금": 5127,
      "카페": 5128,
      "시간을": 5129,
      "실행": 5130,
      "경남": 5131,
      "구간": 5132,
      "지원한다": 5133,
      "법을": 5134,
      "사업의": 5135,
      "금리는": 5136,
      "14년": 5137,
      "교류": 5138,
      "모듈": 5139,
      "속도": 5140,
      "하겠습니다": 5141,
      "규모로": 5142,
      "내외": 5143,
      "상대적으로": 5144,
      "노하우": 5145,
      "프랑": 5146,
      "맞는": 5147,
      "남아": 5148,
      "메모": 5149,
      "선박": 5150,
      "위메이": 5151,
      "15년": 5152,
      "지나": 5153,
      "2016년": 5154,
      "01": 5155,
      "도움이": 5156,
      "정치": 5157,
      "했을": 5158,
      "됐다고": 5159,
      "활용할": 5160,
      "캐피": 5161,
      "55": 5162,
      "가공": 5163,
      "동의": 5164,
      "아니다": 5165,
      "제3": 5166,
      "컴퓨": 5167,
      "본격적인": 5168,
      "이노텍": 5169,
      "가로": 5170,
      "지출": 5171,
      "차주": 5172,
      "나아": 5173,
      "달하는": 5174,
      "대우": 5175,
      "주제로": 5176,
      "어린": 5177,
      "하고자": 5178,
      "대출을": 5179,
      "니아": 5180,
      "단독": 5181,
      "입찰": 5182,
      "지주": 5183,
      "마지막": 5184,
      "서로": 5185,
      "시도": 5186,
      "특수": 5187,
      "상승한": 5188,
      "등과": 5189,
      "으면서": 5190,
      "카이": 5191,
      "그래픽": 5192,
      "시기": 5193,
      "정을": 5194,
      "LG이노텍": 5195,
      "사랑": 5196,
      "시상": 5197,
      "저장": 5198,
      "손해보험": 5199,
      "41": 5200,
      "경고": 5201,
      "궤도": 5202,
      "허가": 5203,
      "시간이": 5204,
      "게임을": 5205,
      "비율이": 5206,
      "63": 5207,
      "LS": 5208,
      "강원": 5209,
      "만기": 5210,
      "팬데믹": 5211,
      "강남구": 5212,
      "발사체": 5213,
      "GW": 5214,
      "갔다": 5215,
      "단행": 5216,
      "확대를": 5217,
      "건전": 5218,
      "담은": 5219,
      "링크": 5220,
      "명품": 5221,
      "사에": 5222,
      "회계": 5223,
      "위해서는": 5224,
      "장애인": 5225,
      "않는다": 5226,
      "점도": 5227,
      "연구팀": 5228,
      "회사의": 5229,
      "원가": 5230,
      "중견": 5231,
      "떨어진": 5232,
      "BA": 5233,
      "일자리": 5234,
      "점으로": 5235,
      "거래가": 5236,
      "어려움을": 5237,
      "CI": 5238,
      "당부": 5239,
      "발급": 5240,
      "었고": 5241,
      "재료": 5242,
      "보유하고": 5243,
      "논란": 5244,
      "아마": 5245,
      "예산": 5246,
      "잡고": 5247,
      "물가가": 5248,
      "원자력": 5249,
      "진행된다": 5250,
      "연합회": 5251,
      "PS": 5252,
      "거주": 5253,
      "보니": 5254,
      "선보인다": 5255,
      "의존": 5256,
      "9년": 5257,
      "빅데이터": 5258,
      "호텔에서": 5259,
      "고도화": 5260,
      "KAIST": 5261,
      "체결했다고": 5262,
      "87": 5263,
      "구입": 5264,
      "받는다": 5265,
      "와이": 5266,
      "사업부": 5267,
      "규제를": 5268,
      ".”": 5269,
      "국산": 5270,
      "정도로": 5271,
      "줄었다": 5272,
      "최소화": 5273,
      "구역": 5274,
      "데다": 5275,
      "들에": 5276,
      "선보인": 5277,
      "태양광": 5278,
      "산물": 5279,
      "여의도": 5280,
      "대학생": 5281,
      "나선다": 5282,
      "신약": 5283,
      "일상": 5284,
      "분할": 5285,
      "선이": 5286,
      "티빙": 5287,
      "비중을": 5288,
      "150": 5289,
      "56": 5290,
      "예고": 5291,
      "사용할": 5292,
      "하나은행": 5293,
      "개별": 5294,
      "테마": 5295,
      "폭염": 5296,
      "규모는": 5297,
      "셈이다": 5298,
      "분을": 5299,
      "시켜": 5300,
      "국립": 5301,
      "낮추": 5302,
      "리에": 5303,
      "많아": 5304,
      "주변": 5305,
      "해석": 5306,
      "중심의": 5307,
      "코스피가": 5308,
      "97": 5309,
      "공기": 5310,
      "진행할": 5311,
      "플랫폼을": 5312,
      "수집": 5313,
      "얼마": 5314,
      "함으로써": 5315,
      "최저임금": 5316,
      "경찰": 5317,
      "여름철": 5318,
      "파이낸셜뉴스": 5319,
      "닷컴": 5320,
      "드로": 5321,
      "무엇": 5322,
      "원과": 5323,
      "이재": 5324,
      "비를": 5325,
      "스에서": 5326,
      "마블": 5327,
      "모터": 5328,
      "신제품": 5329,
      "옵션": 5330,
      "임을": 5331,
      "사업은": 5332,
      "선보일": 5333,
      "메인": 5334,
      "분간": 5335,
      "사상": 5336,
      "1일까지": 5337,
      "27일": 5338,
      "이노베이": 5339,
      "4개": 5340,
      "많다": 5341,
      "무선": 5342,
      "소속": 5343,
      "치킨": 5344,
      "한정": 5345,
      "4분기": 5346,
      "금은": 5347,
      "젊은": 5348,
      "조치를": 5349,
      "존재": 5350,
      "이용해": 5351,
      "카카오모빌리티": 5352,
      "DI": 5353,
      "km": 5354,
      "RE": 5355,
      "수단": 5356,
      "시는": 5357,
      "삼성SD": 5358,
      "13년": 5359,
      "지배구조": 5360,
      "나이": 5361,
      "요일": 5362,
      "운행": 5363,
      "한전": 5364,
      "아이디어": 5365,
      "위원회는": 5366,
      "등장": 5367,
      "스페이스": 5368,
      "프린": 5369,
      "전망된다": 5370,
      "만원을": 5371,
      "쉽지": 5372,
      "시너지": 5373,
      "대만": 5374,
      "열리는": 5375,
      "1998년": 5376,
      "믹스": 5377,
      "버그": 5378,
      "대역": 5379,
      "MOU": 5380,
      "2조": 5381,
      "실무": 5382,
      "유형": 5383,
      "표현": 5384,
      "국무": 5385,
      "늘고": 5386,
      "로는": 5387,
      "오를": 5388,
      "유출": 5389,
      "여부를": 5390,
      "6만": 5391,
      "산하": 5392,
      "매출은": 5393,
      "블루": 5394,
      "인간": 5395,
      "사이트": 5396,
      "4천": 5397,
      "엔진": 5398,
      "작은": 5399,
      "53": 5400,
      "박스": 5401,
      "속도를": 5402,
      "심화": 5403,
      "자세": 5404,
      "측정": 5405,
      "88": 5406,
      "수기": 5407,
      "금리인상": 5408,
      "유의": 5409,
      "율을": 5410,
      "촬영을": 5411,
      "엔터테인먼트": 5412,
      "겁니다": 5413,
      "기지": 5414,
      "리테일": 5415,
      "받습니다": 5416,
      "출하": 5417,
      "합병": 5418,
      "가격에": 5419,
      "안정적인": 5420,
      "방문해": 5421,
      "대의": 5422,
      "자기": 5423,
      "현상": 5424,
      "까지는": 5425,
      "2배": 5426,
      "ER": 5427,
      "거의": 5428,
      "곡물": 5429,
      "ro": 5430,
      "디폴": 5431,
      "수석": 5432,
      "중간": 5433,
      "상태다": 5434,
      "본격화": 5435,
      "한도": 5436,
      "업계는": 5437,
      "봉쇄": 5438,
      "비교해": 5439,
      "이노베이션": 5440,
      "맥주": 5441,
      "천연": 5442,
      "화가": 5443,
      "기준금리": 5444,
      "1명": 5445,
      "EN": 5446,
      "대기업": 5447,
      "발견": 5448,
      "일환": 5449,
      "크론": 5450,
      "사진영상": 5451,
      "관리를": 5452,
      "풀이된다": 5453,
      "1억원": 5454,
      "강력": 5455,
      "부정": 5456,
      "폴란드": 5457,
      "...": 5458,
      "내다봤다": 5459,
      "지역의": 5460,
      "포함해": 5461,
      "처음이다": 5462,
      "전통": 5463,
      "충족": 5464,
      "IB": 5465,
      "양산": 5466,
      "청사에서": 5467,
      "플라스틱": 5468,
      "등이다": 5469,
      "물이": 5470,
      "선발": 5471,
      "신선": 5472,
      "한계": 5473,
      "참석했다": 5474,
      "그래서": 5475,
      "05": 5476,
      "사들이": 5477,
      "기관이": 5478,
      "갤럭": 5479,
      "해지": 5480,
      "솔루션을": 5481,
      "전문가들은": 5482,
      "가계대출": 5483,
      "그라": 5484,
      "내에": 5485,
      "시중": 5486,
      "트로": 5487,
      "으로부터": 5488,
      "인터뷰": 5489,
      "BG": 5490,
      "나다": 5491,
      "반려": 5492,
      "소를": 5493,
      "폴리오": 5494,
      "7만": 5495,
      "CA": 5496,
      "번에": 5497,
      "최고경영자": 5498,
      "주시면": 5499,
      "고통": 5500,
      "그대로": 5501,
      "높이": 5502,
      "순매수": 5503,
      "증권은": 5504,
      "목표를": 5505,
      "판단되는": 5506,
      "나오고": 5507,
      "76": 5508,
      "론칭": 5509,
      "언스": 5510,
      "전세계": 5511,
      "조기": 5512,
      "미니": 5513,
      "분류": 5514,
      "수원": 5515,
      "디폴트": 5516,
      "공헌": 5517,
      "대폭": 5518,
      "이스타": 5519,
      "전남": 5520,
      "매출액": 5521,
      "개방": 5522,
      "도전": 5523,
      "코오": 5524,
      "합동": 5525,
      "지속적인": 5526,
      "감소한": 5527,
      "발생한": 5528,
      "국토부": 5529,
      "가맹": 5530,
      "격을": 5531,
      "상업": 5532,
      "특화": 5533,
      "코오롱": 5534,
      "때는": 5535,
      "르고": 5536,
      "보이는": 5537,
      "시코": 5538,
      "위기를": 5539,
      "400": 5540,
      "북미": 5541,
      "적이다": 5542,
      "연구진": 5543,
      "기름": 5544,
      "근로자": 5545,
      "구독": 5546,
      "통제": 5547,
      "ing": 5548,
      "형태로": 5549,
      "것과": 5550,
      "직장": 5551,
      "히려": 5552,
      "규모가": 5553,
      "가치나": 5554,
      "수학계": 5555,
      "반대매매": 5556,
      "66": 5557,
      "길을": 5558,
      "레일": 5559,
      "버전": 5560,
      "저축": 5561,
      "철강": 5562,
      "2024년": 5563,
      "못한": 5564,
      "오히려": 5565,
      "저가": 5566,
      "갤럭시": 5567,
      "물량": 5568,
      "반등": 5569,
      "받았": 5570,
      "추첨": 5571,
      "확대해": 5572,
      "매출이": 5573,
      "환율은": 5574,
      "알뜰": 5575,
      "카카오는": 5576,
      "걸쳐": 5577,
      "세부": 5578,
      "기관의": 5579,
      "오른쪽": 5580,
      "공감언론": 5581,
      "화제성이": 5582,
      "EU": 5583,
      "급여": 5584,
      "넷마블": 5585,
      "만드는": 5586,
      "않도록": 5587,
      "뉴시스가": 5588,
      "반영하겠습니다": 5589,
      "제보받습니다": 5590,
      "보내주시면": 5591,
      "사진영상부": 5592,
      "그간": 5593,
      "로를": 5594,
      "새로": 5595,
      "원칙": 5596,
      "통과": 5597,
      "트위": 5598,
      "방식을": 5599,
      "IPO": 5600,
      "당분간": 5601,
      "웠다": 5602,
      "지역에서": 5603,
      "센터에서": 5604,
      "혁신을": 5605,
      "메모리": 5606,
      "극재": 5607,
      "다소": 5608,
      "순위": 5609,
      "접속": 5610,
      "총액": 5611,
      "홍콩": 5612,
      "4일부터": 5613,
      "줄어든": 5614,
      "포트폴리오": 5615,
      "법률": 5616,
      "잠재": 5617,
      "진행한": 5618,
      "SSG": 5619,
      "공원": 5620,
      "주재": 5621,
      "별로는": 5622,
      "누구나": 5623,
      "같다": 5624,
      "개혁": 5625,
      "식에서": 5626,
      "온실": 5627,
      "크래": 5628,
      "협상": 5629,
      "15일": 5630,
      "재인": 5631,
      "발생하는": 5632,
      "비용을": 5633,
      "고가": 5634,
      "외교": 5635,
      "이지만": 5636,
      "폐지": 5637,
      "이스타항공": 5638,
      "선제": 5639,
      "원화": 5640,
      "종의": 5641,
      "상황에": 5642,
      "차지하는": 5643,
      "메이션": 5644,
      "고정": 5645,
      "이탈": 5646,
      "재건축": 5647,
      "카카오뱅크": 5648,
      "대금리": 5649,
      "봉사": 5650,
      "상속": 5651,
      "30대": 5652,
      "전망치": 5653,
      "적극적인": 5654,
      "시키는": 5655,
      "ICT": 5656,
      "운항": 5657,
      "착륙": 5658,
      "2015년": 5659,
      "신한은행": 5660,
      "자율주행": 5661,
      "트위터": 5662,
      "어나": 5663,
      "이동통신": 5664,
      "외환위기": 5665,
      "1위를": 5666,
      "불편": 5667,
      "주기": 5668,
      "퍼런": 5669,
      "교신": 5670,
      "든요": 5671,
      "원리": 5672,
      "12년": 5673,
      "코스피는": 5674,
      "분리": 5675,
      "면서도": 5676,
      "드라마": 5677,
      "배럴": 5678,
      "유도": 5679,
      "형성": 5680,
      "4000": 5681,
      "AS": 5682,
      "극복": 5683,
      "챌린": 5684,
      "신문": 5685,
      "최악": 5686,
      "가능해": 5687,
      "문제는": 5688,
      "거든요": 5689,
      "면세": 5690,
      "전개": 5691,
      "지며": 5692,
      "질병": 5693,
      "축소": 5694,
      "기술로": 5695,
      "방어": 5696,
      "싱가": 5697,
      "제대로": 5698,
      "기관은": 5699,
      "국민의힘": 5700,
      "서다": 5701,
      "애널리": 5702,
      "의사": 5703,
      "집단": 5704,
      "제조업": 5705,
      "노조는": 5706,
      "3대": 5707,
      "가지고": 5708,
      "함을": 5709,
      "평가했다": 5710,
      "본부장": 5711,
      "블랙": 5712,
      "율은": 5713,
      "실적이": 5714,
      "양자암호": 5715,
      "업무협약을": 5716,
      "값이": 5717,
      "주식을": 5718,
      "자금을": 5719,
      "91": 5720,
      "마을": 5721,
      "점이다": 5722,
      "제재": 5723,
      "주년을": 5724,
      "불가피": 5725,
      "SUV": 5726,
      "경우가": 5727,
      "수학자": 5728,
      "kr": 5729,
      "노력을": 5730,
      "물리": 5731,
      "앱을": 5732,
      "음을": 5733,
      "10일": 5734,
      "드경제": 5735,
      "압박": 5736,
      "촉진": 5737,
      "가능성도": 5738,
      "말씀": 5739,
      "시티": 5740,
      "이복": 5741,
      "정의": 5742,
      "본부장은": 5743,
      "공고": 5744,
      "구하고": 5745,
      "시킬": 5746,
      "아트": 5747,
      "체감": 5748,
      "아이오": 5749,
      "LH": 5750,
      "엑스포": 5751,
      "캐나다": 5752,
      "나가겠다": 5753,
      "관을": 5754,
      "벌어": 5755,
      "헤럴": 5756,
      "에서의": 5757,
      "중국의": 5758,
      "아이템": 5759,
      "하려는": 5760,
      "43": 5761,
      "PL": 5762,
      "돈을": 5763,
      "밴드": 5764,
      "음료": 5765,
      "지속가능": 5766,
      "심각": 5767,
      "인기를": 5768,
      "절차를": 5769,
      "사용하는": 5770,
      "최고의": 5771,
      "비가": 5772,
      "실리": 5773,
      "위의": 5774,
      "이창": 5775,
      "사업이": 5776,
      "10만": 5777,
      "대표가": 5778,
      "제품은": 5779,
      "마이크로": 5780,
      "헤럴드경제": 5781,
      "가이드": 5782,
      "소형": 5783,
      "회관에서": 5784,
      "24시간": 5785,
      "이복현": 5786,
      "췄다": 5787,
      "케미": 5788,
      "개선을": 5789,
      "확보를": 5790,
      "지금까지": 5791,
      "독립": 5792,
      "뷰티": 5793,
      "수익을": 5794,
      "모습을": 5795,
      "못하고": 5796,
      "이같이": 5797,
      "54": 5798,
      "86": 5799,
      "권고": 5800,
      "소폭": 5801,
      "적이고": 5802,
      "중개": 5803,
      "활발": 5804,
      "진행했다": 5805,
      "운영하고": 5806,
      "하나로": 5807,
      "싱가포르": 5808,
      "EV": 5809,
      "관세": 5810,
      "이란": 5811,
      "이로": 5812,
      "서비스는": 5813,
      "지원할": 5814,
      "회사가": 5815,
      "23일": 5816,
      "삼성전자가": 5817,
      "제외한": 5818,
      "개설": 5819,
      "보상": 5820,
      "원숭": 5821,
      "정해": 5822,
      "집행": 5823,
      "화재": 5824,
      "투자가": 5825,
      "확대할": 5826,
      "발생할": 5827,
      "AC": 5828,
      "MS": 5829,
      "기의": 5830,
      "나설": 5831,
      "문재인": 5832,
      "변화를": 5833,
      "보수": 5834,
      "실업": 5835,
      "입장을": 5836,
      "중에": 5837,
      "코드": 5838,
      "출시한": 5839,
      "수익성": 5840,
      "참석해": 5841,
      "자신의": 5842,
      "없다는": 5843,
      "유연": 5844,
      "졌습니다": 5845,
      "클래": 5846,
      "참여한": 5847,
      "사이버": 5848,
      "참석한": 5849,
      "어렵다": 5850,
      "곳에서": 5851,
      "눈에": 5852,
      "단가": 5853,
      "내에서": 5854,
      "운전": 5855,
      "이루": 5856,
      "적정": 5857,
      "태그": 5858,
      "프라이": 5859,
      "학부": 5860,
      "협약을": 5861,
      "본격적으로": 5862,
      "영업이익은": 5863,
      "1인": 5864,
      "CU": 5865,
      "슈퍼": 5866,
      "실증": 5867,
      "음악": 5868,
      "쿠폰": 5869,
      "벤처기업": 5870,
      "마무리": 5871,
      "최선을": 5872,
      "협업을": 5873,
      "DSR": 5874,
      "게시": 5875,
      "금이": 5876,
      "모색": 5877,
      "테리어": 5878,
      "04": 5879,
      "돌입": 5880,
      "정유": 5881,
      "폐기": 5882,
      "추진할": 5883,
      "원숭이": 5884,
      "BT": 5885,
      "지면": 5886,
      "출시했다": 5887,
      "lock": 5888,
      "가파": 5889,
      "높일": 5890,
      "어링": 5891,
      "직후": 5892,
      "이용하는": 5893,
      "동참": 5894,
      "두창": 5895,
      "강화를": 5896,
      "대학원": 5897,
      "국채": 5898,
      "멕시코": 5899,
      "부여": 5900,
      "워드": 5901,
      "총리": 5902,
      "해운": 5903,
      "스타일": 5904,
      "프랑스": 5905,
      "CP": 5906,
      "미치는": 5907,
      "불법": 5908,
      "철저": 5909,
      "근거": 5910,
      "네오": 5911,
      "머지": 5912,
      "상향": 5913,
      "올렸다": 5914,
      "임무": 5915,
      "전담": 5916,
      "지자체": 5917,
      "상승에": 5918,
      "다이": 5919,
      "약속": 5920,
      "체크": 5921,
      "어린이": 5922,
      "SNS": 5923,
      "범위": 5924,
      "유예": 5925,
      "OS": 5926,
      "가져": 5927,
      "머니": 5928,
      "메가": 5929,
      "모아": 5930,
      "바뀌": 5931,
      "여개": 5932,
      "여신": 5933,
      "가상화폐": 5934,
      "증시가": 5935,
      "92": 5936,
      "강제": 5937,
      "거부": 5938,
      "토론": 5939,
      "폭락": 5940,
      "참여할": 5941,
      "들여": 5942,
      "세는": 5943,
      "줄이": 5944,
      "구체적인": 5945,
      "밸류": 5946,
      "종을": 5947,
      "노력하겠다": 5948,
      "담보대출": 5949,
      "상용화": 5950,
      "국토교통부": 5951,
      "62": 5952,
      "방통": 5953,
      "불리는": 5954,
      "거듭": 5955,
      "됐고": 5956,
      "부실": 5957,
      "정식": 5958,
      "규제가": 5959,
      "쇼핑몰": 5960,
      "3배": 5961,
      "영화": 5962,
      "기업들은": 5963,
      "둘러": 5964,
      "미세": 5965,
      "원료": 5966,
      "적이": 5967,
      "케미칼": 5968,
      "MI": 5969,
      "당초": 5970,
      "플래": 5971,
      "기술과": 5972,
      "분야에": 5973,
      "차지했다": 5974,
      "나스": 5975,
      "리케이션": 5976,
      "신탁": 5977,
      "열어": 5978,
      "클럽": 5979,
      "확대하고": 5980,
      "최고치를": 5981,
      "대통령이": 5982,
      "과학기술정보통신부": 5983,
      "8000": 5984,
      "9시": 5985,
      "독점": 5986,
      "힌다": 5987,
      "드림": 5988,
      "로서": 5989,
      "본사": 5990,
      "접목": 5991,
      "체결했다": 5992,
      "GDP": 5993,
      "금액은": 5994,
      "머스크": 5995,
      "선임": 5996,
      "자에": 5997,
      "제2": 5998,
      "2014년": 5999,
      "이어지고": 6000,
      "만원으로": 6001,
      "유동성": 6002,
      "이끌": 6003,
      "전일": 6004,
      "한층": 6005,
      "높여": 6006,
      "로그": 6007,
      "업을": 6008,
      "자들의": 6009,
      "무더": 6010,
      "바람": 6011,
      "스에": 6012,
      "알파": 6013,
      "종로": 6014,
      "10개": 6015,
      "대표적인": 6016,
      "상품은": 6017,
      "가스요금": 6018,
      "아이오닉": 6019,
      "금속": 6020,
      "상으로": 6021,
      "심사를": 6022,
      "이종": 6023,
      "디지털데일리": 6024,
      "하이브": 6025,
      "구미": 6026,
      "대에서": 6027,
      "원격": 6028,
      "점포": 6029,
      "품을": 6030,
      "화장": 6031,
      "후속": 6032,
      "모델을": 6033,
      "경매": 6034,
      "재미": 6035,
      "2012년": 6036,
      "한다면": 6037,
      "LG유플러스는": 6038,
      "애널리스트": 6039,
      "뮤직": 6040,
      "이들은": 6041,
      "장마": 6042,
      "구성된": 6043,
      "거래일보다": 6044,
      "만한": 6045,
      "세븐": 6046,
      "기술이": 6047,
      "기간은": 6048,
      "제도를": 6049,
      "패키지": 6050,
      "연방준비": 6051,
      "block": 6052,
      "곳에": 6053,
      "반복": 6054,
      "엑스": 6055,
      "이래": 6056,
      "추측": 6057,
      "전력수급": 6058,
      "계기로": 6059,
      "긴급": 6060,
      "선정된": 6061,
      "제시했다": 6062,
      "프로모션": 6063,
      "박사": 6064,
      "초반": 6065,
      "해주는": 6066,
      "국제유가": 6067,
      "현상이": 6068,
      "적용해": 6069,
      "여파로": 6070,
      "TF": 6071,
      "너스": 6072,
      "언제": 6073,
      "우고": 6074,
      "유리": 6075,
      "에어컨": 6076,
      "브라": 6077,
      "시절": 6078,
      "심리": 6079,
      "일시": 6080,
      "올해는": 6081,
      "120": 6082,
      "83": 6083,
      "다수": 6084,
      "바다": 6085,
      "부를": 6086,
      "연령": 6087,
      "조절": 6088,
      "억원의": 6089,
      "교육을": 6090,
      "51": 6091,
      "82": 6092,
      "균형": 6093,
      "본다": 6094,
      "서민": 6095,
      "실내": 6096,
      "인테리어": 6097,
      "주일": 6098,
      "인상을": 6099,
      "구축을": 6100,
      "프로젝트를": 6101,
      "과기정통부": 6102,
      "명예": 6103,
      "미리": 6104,
      "인플": 6105,
      "타이": 6106,
      "표시": 6107,
      "금융위기": 6108,
      "차이가": 6109,
      "스스로": 6110,
      "애니": 6111,
      "진행하는": 6112,
      "비율은": 6113,
      "온실가스": 6114,
      "높이는": 6115,
      "용량": 6116,
      "인스타": 6117,
      "주최": 6118,
      "창립": 6119,
      "출신": 6120,
      "항목": 6121,
      "됐던": 6122,
      "안보": 6123,
      "자들은": 6124,
      "연구를": 6125,
      "레이션": 6126,
      "사람이": 6127,
      "경신": 6128,
      "고양": 6129,
      "노선": 6130,
      "당장": 6131,
      "받지": 6132,
      "질문": 6133,
      "이유는": 6134,
      "위메이드": 6135,
      "건으로": 6136,
      "세미": 6137,
      "보고서를": 6138,
      "가시": 6139,
      "가중": 6140,
      "관이": 6141,
      "나오는": 6142,
      "년대": 6143,
      "속에서": 6144,
      "가치가": 6145,
      "강력한": 6146,
      "8만": 6147,
      "고기": 6148,
      "넥슨": 6149,
      "메시": 6150,
      "임원": 6151,
      "파트너십": 6152,
      "취약계층": 6153,
      "도와": 6154,
      "합성": 6155,
      "충분히": 6156,
      "강한": 6157,
      "노벨": 6158,
      "동구": 6159,
      "레벨": 6160,
      "매체": 6161,
      "서버": 6162,
      "서초": 6163,
      "음성": 6164,
      "지역에": 6165,
      "우리가": 6166,
      "사망": 6167,
      "취소": 6168,
      "해상": 6169,
      "한국은행": 6170,
      "공개했다": 6171,
      "bp": 6172,
      "굉장": 6173,
      "기고": 6174,
      "예술": 6175,
      "중대": 6176,
      "호주": 6177,
      "정부와": 6178,
      "산업계": 6179,
      "상승률은": 6180,
      "69": 6181,
      "도약": 6182,
      "바닥": 6183,
      "의결": 6184,
      "전파": 6185,
      "SKT": 6186,
      "사항을": 6187,
      "멤버십": 6188,
      "각국": 6189,
      "겼다": 6190,
      "많았다": 6191,
      "실패": 6192,
      "운전자": 6193,
      "적절": 6194,
      "정한": 6195,
      "상승으로": 6196,
      "성장할": 6197,
      "삼성전자의": 6198,
      "었지만": 6199,
      "국내에서": 6200,
      "곳은": 6201,
      "주차": 6202,
      "토리": 6203,
      "정부서울": 6204,
      "비슷한": 6205,
      "관람": 6206,
      "달간": 6207,
      "동영상": 6208,
      "민감": 6209,
      "시내": 6210,
      "의원": 6211,
      "고객들이": 6212,
      "늘어나": 6213,
      "어려워": 6214,
      "분이": 6215,
      "지인": 6216,
      "에게는": 6217,
      "프로세": 6218,
      "자료를": 6219,
      "컴퓨터": 6220,
      "격차": 6221,
      "공장을": 6222,
      "극대화": 6223,
      "달한다": 6224,
      "멘토": 6225,
      "못했다": 6226,
      "양방향": 6227,
      "착수": 6228,
      "타임": 6229,
      "추진하고": 6230,
      "13일": 6231,
      "케이뱅크": 6232,
      "나눠": 6233,
      "신경": 6234,
      "악재": 6235,
      "외에": 6236,
      "작성": 6237,
      "규모를": 6238,
      "그룹이": 6239,
      "발전을": 6240,
      "실리콘": 6241,
      "3조": 6242,
      "89": 6243,
      "WS": 6244,
      "면역": 6245,
      "적은": 6246,
      "화질": 6247,
      "기대하고": 6248,
      "06": 6249,
      "구를": 6250,
      "놓고": 6251,
      "불구하고": 6252,
      "전이": 6253,
      "중장기": 6254,
      "서울의": 6255,
      "관련된": 6256,
      "오피스텔": 6257,
      "CO": 6258,
      "ch": 6259,
      "김치": 6260,
      "차단": 6261,
      "진행된": 6262,
      "하나의": 6263,
      "돼야": 6264,
      "어요": 6265,
      "고급": 6266,
      "공제": 6267,
      "이차": 6268,
      "이같은": 6269,
      "토큰": 6270,
      "사진제공": 6271,
      "중요하다": 6272,
      "el": 6273,
      "크리": 6274,
      "이상을": 6275,
      "수출이": 6276,
      "캐피탈": 6277,
      "보급": 6278,
      "음극재": 6279,
      "인은": 6280,
      "장소": 6281,
      "재활용": 6282,
      "좋아": 6283,
      "확충": 6284,
      "사회공헌": 6285,
      "예상했다": 6286,
      "작품을": 6287,
      "프린스턴": 6288,
      "74": 6289,
      "리움": 6290,
      "민주당": 6291,
      "사출": 6292,
      "순으로": 6293,
      "오미": 6294,
      "유기": 6295,
      "유한": 6296,
      "장에서": 6297,
      "100만": 6298,
      "인스타그램": 6299,
      "굉장히": 6300,
      "8천": 6301,
      "것에": 6302,
      "만이다": 6303,
      "배우": 6304,
      "상하이": 6305,
      "정리": 6306,
      "타운": 6307,
      "방향을": 6308,
      "애플리케이션": 6309,
      "아마존": 6310,
      "KI": 6311,
      "대기": 6312,
      "명확": 6313,
      "상증": 6314,
      "소송": 6315,
      "출연": 6316,
      "해온": 6317,
      "협의회": 6318,
      "담아": 6319,
      "수술": 6320,
      "연세대": 6321,
      "지오": 6322,
      "찾는": 6323,
      "투어": 6324,
      "폭으로": 6325,
      "대표이": 6326,
      "11년": 6327,
      "현장에서": 6328,
      "6000": 6329,
      "권에": 6330,
      "사내": 6331,
      "신작": 6332,
      "억원에": 6333,
      "KBS": 6334,
      "사례가": 6335,
      "피해를": 6336,
      "ENM": 6337,
      "5대": 6338,
      "7개": 6339,
      "높이고": 6340,
      "보기": 6341,
      "세에": 6342,
      "신종": 6343,
      "조언": 6344,
      "파운드": 6345,
      "했기": 6346,
      "된다는": 6347,
      "센터를": 6348,
      "보험료": 6349,
      "움직임": 6350,
      "강도": 6351,
      "수여": 6352,
      "이터": 6353,
      "점차": 6354,
      "콜라": 6355,
      "경영진": 6356,
      "챌린지": 6357,
      "년간": 6358,
      "민생": 6359,
      "상시": 6360,
      "조회": 6361,
      "리얼": 6362,
      "포장": 6363,
      "경제부총리": 6364,
      "레이드": 6365,
      "스토리": 6366,
      "흐름을": 6367,
      "최악의": 6368,
      "원숭이두창": 6369,
      "AR": 6370,
      "ss": 6371,
      "였습니다": 6372,
      "판에": 6373,
      "지속될": 6374,
      "기념해": 6375,
      "000만달러": 6376,
      "72": 6377,
      "있던": 6378,
      "간담회를": 6379,
      "130": 6380,
      "도심": 6381,
      "들었다": 6382,
      "투기": 6383,
      "평양": 6384,
      "조사를": 6385,
      "성공했다": 6386,
      "비교하면": 6387,
      "명에": 6388,
      "에프": 6389,
      "출처": 6390,
      "완성차": 6391,
      "600": 6392,
      "밝힌": 6393,
      "사우": 6394,
      "아우": 6395,
      "토스": 6396,
      "개인정보": 6397,
      "보완": 6398,
      "순매도": 6399,
      "커질": 6400,
      "규모다": 6401,
      "공간을": 6402,
      "News": 6403,
      "기울": 6404,
      "취급": 6405,
      "현대자동차": 6406,
      "강화하고": 6407,
      "비용이": 6408,
      "석탄": 6409,
      "자리를": 6410,
      "가속화": 6411,
      "개념": 6412,
      "엔지니": 6413,
      "장에": 6414,
      "최대한": 6415,
      "후원": 6416,
      "청소년": 6417,
      "LNG": 6418,
      "산정": 6419,
      "일으": 6420,
      "전송": 6421,
      "차원에서": 6422,
      "봐야": 6423,
      "추구": 6424,
      "환불": 6425,
      "경제인": 6426,
      "허가를": 6427,
      "사진을": 6428,
      "트리온": 6429,
      "원리금": 6430,
      "셀트리온": 6431,
      "스러": 6432,
      "종가": 6433,
      "산업부": 6434,
      "오르고": 6435,
      "게이밍": 6436,
      "이야기": 6437,
      "교체": 6438,
      "샌드": 6439,
      "오랜": 6440,
      "와인": 6441,
      "풍력": 6442,
      "성공적으로": 6443,
      "신청을": 6444,
      "어디": 6445,
      "올린": 6446,
      "작동": 6447,
      "반영해": 6448,
      "1호": 6449,
      "IDC": 6450,
      "꼽힌다": 6451,
      "다면": 6452,
      "보일": 6453,
      "사옥": 6454,
      "소시": 6455,
      "스럽": 6456,
      "이끌어": 6457,
      "자주": 6458,
      "충격": 6459,
      "기술력을": 6460,
      "관련한": 6461,
      "참여해": 6462,
      "방법을": 6463,
      "교환": 6464,
      "내렸다": 6465,
      "다르": 6466,
      "발간": 6467,
      "세트": 6468,
      "정밀": 6469,
      "직전": 6470,
      "충남": 6471,
      "우리은행": 6472,
      "당부했다": 6473,
      "종로구": 6474,
      "교섭": 6475,
      "카테": 6476,
      "카카오게임즈": 6477,
      "마련했다": 6478,
      "넷플릭스": 6479,
      "고령": 6480,
      "도착": 6481,
      "즈를": 6482,
      "코레일": 6483,
      "행위": 6484,
      "기관과": 6485,
      "삼성SDI": 6486,
      "일환으로": 6487,
      "아동": 6488,
      "안이": 6489,
      "올레드": 6490,
      "자녀": 6491,
      "취재": 6492,
      "수치다": 6493,
      "61": 6494,
      "6천": 6495,
      "73": 6496,
      "ce": 6497,
      "ri": 6498,
      "늘려": 6499,
      "스위": 6500,
      "유망": 6501,
      "지향": 6502,
      "치지": 6503,
      "팀장은": 6504,
      "상승을": 6505,
      "비상경제": 6506,
      "98": 6507,
      "브로드": 6508,
      "실험": 6509,
      "이처럼": 6510,
      "20일": 6511,
      "제품의": 6512,
      "이차전지": 6513,
      "김영": 6514,
      "단백": 6515,
      "문의": 6516,
      "브리": 6517,
      "선진": 6518,
      "히는": 6519,
      "진행한다고": 6520,
      "수요를": 6521,
      "생각한다": 6522,
      "캠페인을": 6523,
      "고등과학": 6524,
      "노하우를": 6525,
      "고금리": 6526,
      "대는": 6527,
      "마크": 6528,
      "신혼": 6529,
      "워치": 6530,
      "이사회": 6531,
      "집을": 6532,
      "마이데이터": 6533,
      "GC": 6534,
      "PU": 6535,
      "마찬": 6536,
      "분에": 6537,
      "연내": 6538,
      "자영업": 6539,
      "택시": 6540,
      "이날부터": 6541,
      "주택담보대출": 6542,
      "직원들이": 6543,
      "손실을": 6544,
      "퍼런스": 6545,
      "로직": 6546,
      "용산": 6547,
      "위탁": 6548,
      "자재": 6549,
      "주담": 6550,
      "개발해": 6551,
      "미래를": 6552,
      "외환보유": 6553,
      "리기": 6554,
      "바라": 6555,
      "보드": 6556,
      "예를": 6557,
      "일단": 6558,
      "훈련": 6559,
      "지원하고": 6560,
      "LG전자는": 6561,
      "영향이": 6562,
      "성능을": 6563,
      "21일": 6564,
      "곳이": 6565,
      "빅스텝": 6566,
      "한국항공우주": 6567,
      "중앙회": 6568,
      "블룸": 6569,
      "소셜": 6570,
      "자문": 6571,
      "이용한": 6572,
      "토레스": 6573,
      "SK하이닉스": 6574,
      "4대": 6575,
      "단렌": 6576,
      "력과": 6577,
      "법에": 6578,
      "세워": 6579,
      "순이익": 6580,
      "경제가": 6581,
      "활성화를": 6582,
      "게이단렌": 6583,
      "비행": 6584,
      "월세": 6585,
      "이지": 6586,
      "2010년": 6587,
      "상승세를": 6588,
      "이어서": 6589,
      "협력해": 6590,
      "News1": 6591,
      "소시엄": 6592,
      "CN": 6593,
      "계산": 6594,
      "쏘카": 6595,
      "아요": 6596,
      "친구": 6597,
      "플랜": 6598,
      "으로서": 6599,
      "기준을": 6600,
      "중소벤처기업": 6601,
      "작업을": 6602,
      "아래로": 6603,
      "부서": 6604,
      "쏟아": 6605,
      "제네": 6606,
      "상품으로": 6607,
      "참여하는": 6608,
      "강화해": 6609,
      "정부서울청사에서": 6610,
      "9만": 6611,
      "BN": 6612,
      "un": 6613,
      "나머지": 6614,
      "센트": 6615,
      "었는데": 6616,
      "제당": 6617,
      "이상이": 6618,
      "롯데마트": 6619,
      "노동조합": 6620,
      "후보자는": 6621,
      "얼마나": 6622,
      "과세": 6623,
      "리조": 6624,
      "시공": 6625,
      "없을": 6626,
      "프톤": 6627,
      "서비스가": 6628,
      "198": 6629,
      "미국과": 6630,
      "지역을": 6631,
      "환경부": 6632,
      "주요국": 6633,
      "22일": 6634,
      "전반에": 6635,
      "금융감독원": 6636,
      "크래프톤": 6637,
      "부부": 6638,
      "코어": 6639,
      "학술": 6640,
      "제공해": 6641,
      "제일제당": 6642,
      "받게": 6643,
      "시세": 6644,
      "환경이": 6645,
      "건설은": 6646,
      "마찬가지": 6647,
      "공포": 6648,
      "알고리": 6649,
      "제철": 6650,
      "경제의": 6651,
      "최근에는": 6652,
      "현재까지": 6653,
      "기념촬영을": 6654,
      "진출을": 6655,
      "증정한다": 6656,
      "홀딩스": 6657,
      "량의": 6658,
      "많았": 6659,
      "생물": 6660,
      "올려": 6661,
      "제거": 6662,
      "컨소시엄": 6663,
      "플로": 6664,
      "판매가": 6665,
      "알고리즘": 6666,
      "발주": 6667,
      "비아": 6668,
      "서구": 6669,
      "시켰": 6670,
      "정신": 6671,
      "줄여": 6672,
      "파산": 6673,
      "화에": 6674,
      "회의소": 6675,
      "인증을": 6676,
      "오르는": 6677,
      "CJ제일제당": 6678,
      "필즈상을": 6679,
      "GM": 6680,
      "바꾸": 6681,
      "유전자": 6682,
      "카카오가": 6683,
      "늘어날": 6684,
      "시가총액": 6685,
      "2030년까지": 6686,
      "저렴한": 6687,
      "D램": 6688,
      "산출": 6689,
      "연말": 6690,
      "오브": 6691,
      "청구": 6692,
      "특성": 6693,
      "소비자들이": 6694,
      "분석이다": 6695,
      "메리": 6696,
      "설문": 6697,
      "성수": 6698,
      "수용": 6699,
      "연맹": 6700,
      "홈쇼핑": 6701,
      "자산을": 6702,
      "ation": 6703,
      "이름을": 6704,
      "4시": 6705,
      "8K": 6706,
      "kg": 6707,
      "배치": 6708,
      "붕괴": 6709,
      "스피": 6710,
      "양사는": 6711,
      "올리는": 6712,
      "세계박람회": 6713,
      "가까운": 6714,
      "뛰어난": 6715,
      "RPG": 6716,
      "꼽았다": 6717,
      "사모": 6718,
      "지켜": 6719,
      "행진": 6720,
      "금융위원회": 6721,
      "선보였다": 6722,
      "상공회의소": 6723,
      "16일": 6724,
      "나올": 6725,
      "못하는": 6726,
      "기준금리를": 6727,
      "KB국민": 6728,
      "나스닥": 6729,
      "연방준비제도": 6730,
      "레인": 6731,
      "만으로": 6732,
      "운영한다": 6733,
      "구축하고": 6734,
      "등급을": 6735,
      "단백질": 6736,
      "140": 6737,
      "부사장": 6738,
      "충돌": 6739,
      "한미": 6740,
      "투자에": 6741,
      "겠다고": 6742,
      "협의체": 6743,
      "TO": 6744,
      "수당": 6745,
      "어도": 6746,
      "지와": 6747,
      "전환을": 6748,
      "전해졌다": 6749,
      "기한": 6750,
      "알아": 6751,
      "일각": 6752,
      "적으로는": 6753,
      "거래되고": 6754,
      "경영을": 6755,
      "내용은": 6756,
      "대책을": 6757,
      "보도했다": 6758,
      "화장품": 6759,
      "모양": 6760,
      "우는": 6761,
      "현행": 6762,
      "수출은": 6763,
      "자동으로": 6764,
      "사이클": 6765,
      "감지": 6766,
      "고요": 6767,
      "벨리": 6768,
      "액을": 6769,
      "즉시": 6770,
      "5년간": 6771,
      "이른바": 6772,
      "나아가": 6773,
      "ct": 6774,
      "길이": 6775,
      "단위": 6776,
      "답변": 6777,
      "실을": 6778,
      "어스": 6779,
      "이은": 6780,
      "준수": 6781,
      "초청": 6782,
      "가격으로": 6783,
      "기록할": 6784,
      "업계에서는": 6785,
      "정책에": 6786,
      "거리두": 6787,
      "목소리를": 6788,
      "In": 6789,
      "ra": 6790,
      "국정": 6791,
      "선사": 6792,
      "약세": 6793,
      "인건": 6794,
      "조차": 6795,
      "창작": 6796,
      "산업을": 6797,
      "SK브로드": 6798,
      "코로나19로": 6799,
      "러시아의": 6800,
      "7천": 6801,
      "높았다": 6802,
      "리포트": 6803,
      "속에": 6804,
      "신저": 6805,
      "이던": 6806,
      "입을": 6807,
      "자격": 6808,
      "관계를": 6809,
      "분석이": 6810,
      "진흥원": 6811,
      "매주": 6812,
      "억제": 6813,
      "인포": 6814,
      "장과": 6815,
      "학회": 6816,
      "00만원": 6817,
      "대한항공": 6818,
      "기여할": 6819,
      "14일": 6820,
      "et": 6821,
      "마사": 6822,
      "본인": 6823,
      "신차": 6824,
      "실장은": 6825,
      "축산": 6826,
      "art": 6827,
      "기회가": 6828,
      "개를": 6829,
      "녹색": 6830,
      "동력": 6831,
      "분명": 6832,
      "세제": 6833,
      "심리가": 6834,
      "투자하는": 6835,
      "한국거래소": 6836,
      "대상은": 6837,
      "출시를": 6838,
      "현장의": 6839,
      "파워": 6840,
      "해수": 6841,
      "세계적인": 6842,
      "하반기에도": 6843,
      "전략적": 6844,
      "분양가": 6845,
      "지상국": 6846,
      "정확한": 6847,
      "8개월": 6848,
      "리터": 6849,
      "스페": 6850,
      "여기": 6851,
      "와트": 6852,
      "캠프": 6853,
      "불확실성이": 6854,
      "31일까지": 6855,
      "Fed": 6856,
      "GT": 6857,
      "국제공": 6858,
      "급감": 6859,
      "냐는": 6860,
      "됐지만": 6861,
      "들로": 6862,
      "딜링": 6863,
      "보통": 6864,
      "예대금리": 6865,
      "이정": 6866,
      "가격도": 6867,
      "보험사": 6868,
      "부총리는": 6869,
      "양자암호통신": 6870,
      "UAM": 6871,
      "기재": 6872,
      "동원": 6873,
      "손잡고": 6874,
      "운반": 6875,
      "대해서도": 6876,
      "한일재계": 6877,
      "알뜰폰": 6878,
      "딜링룸": 6879,
      "7개월": 6880,
      "PA": 6881,
      "구분": 6882,
      "뚜렷": 6883,
      "세탁": 6884,
      "숙박": 6885,
      "우대": 6886,
      "추세": 6887,
      "위원회를": 6888,
      "대통령은": 6889,
      "번째로": 6890,
      "부가가치": 6891,
      "까요": 6892,
      "데요": 6893,
      "장의": 6894,
      "금융기관": 6895,
      "물가를": 6896,
      "고속도로": 6897,
      "천연가스": 6898,
      "멀티": 6899,
      "위협": 6900,
      "이중": 6901,
      "자치": 6902,
      "적합": 6903,
      "세미나": 6904,
      "됐으며": 6905,
      "매니": 6906,
      "없었다": 6907,
      "적을": 6908,
      "주에": 6909,
      "추얼": 6910,
      "흔들": 6911,
      "기간에": 6912,
      "LG유플러스가": 6913,
      "성능검증": 6914,
      "공시했다": 6915,
      "합리적인": 6916,
      "납품": 6917,
      "유치를": 6918,
      "중공업": 6919,
      "치열": 6920,
      "우려를": 6921,
      "마이크론": 6922,
      "시설을": 6923,
      "중앙은행": 6924,
      "가공식품": 6925,
      "경계": 6926,
      "냉동": 6927,
      "변호": 6928,
      "재개발": 6929,
      "저희": 6930,
      "전무": 6931,
      "증가할": 6932,
      "시작된": 6933,
      "추진한다": 6934,
      "구매할": 6935,
      "들과의": 6936,
      "휴가철": 6937,
      "연구팀은": 6938,
      "도움을": 6939,
      "무원": 6940,
      "무인": 6941,
      "의지를": 6942,
      "주말": 6943,
      "2011년": 6944,
      "금융시장": 6945,
      "고객들의": 6946,
      "카카오페이": 6947,
      "안전한": 6948,
      "KT가": 6949,
      "KDI": 6950,
      "가산": 6951,
      "과열": 6952,
      "비는": 6953,
      "열었다": 6954,
      "이어갈": 6955,
      "공급을": 6956,
      "내용이": 6957,
      "하이브리드": 6958,
      "광역시": 6959,
      "기타": 6960,
      "범죄": 6961,
      "한번": 6962,
      "있는지": 6963,
      "조정대상": 6964,
      "이달부터": 6965,
      "채널을": 6966,
      "4조": 6967,
      "SC": 6968,
      "목적으로": 6969,
      "반발": 6970,
      "컨테이": 6971,
      "훨씬": 6972,
      "확대에": 6973,
      "1년간": 6974,
      "모습이다": 6975,
      "갖추": 6976,
      "겠지만": 6977,
      "노후": 6978,
      "돼지고": 6979,
      "역을": 6980,
      "원희": 6981,
      "즐거": 6982,
      "진행됐다": 6983,
      "판매하는": 6984,
      "기간을": 6985,
      "매출을": 6986,
      "수산물": 6987,
      "컨테이너": 6988,
      "서류": 6989,
      "시점": 6990,
      "이게": 6991,
      "신한금융": 6992,
      "논의했다": 6993,
      "사실을": 6994,
      "사전에": 6995,
      "24일": 6996,
      "명은": 6997,
      "시킨": 6998,
      "실에서": 6999,
      "소비자가": 7000,
      "어려울": 7001,
      "사람들이": 7002,
      "자세한": 7003,
      "P500": 7004,
      "멘트": 7005,
      "물량이": 7006,
      "배틀": 7007,
      "석학": 7008,
      "종이": 7009,
      "커졌다": 7010,
      "은행권": 7011,
      "기존의": 7012,
      "구글의": 7013,
      "9000": 7014,
      "감면": 7015,
      "농산물": 7016,
      "오리지": 7017,
      "제는": 7018,
      "정보기술": 7019,
      "5억": 7020,
      "IR": 7021,
      "OLED": 7022,
      "강의": 7023,
      "달아": 7024,
      "동을": 7025,
      "실태": 7026,
      "원까지": 7027,
      "입증": 7028,
      "중기": 7029,
      "중순": 7030,
      "스트레": 7031,
      "40대": 7032,
      "해당하는": 7033,
      "계열사": 7034,
      "스페셜": 7035,
      "겪고": 7036,
      "고유가": 7037,
      "스파": 7038,
      "이프": 7039,
      "제정": 7040,
      "창의": 7041,
      "이어가고": 7042,
      "위원장은": 7043,
      "기존에": 7044,
      "지금은": 7045,
      "93": 7046,
      "곳을": 7047,
      "냉장": 7048,
      "노출": 7049,
      "능력을": 7050,
      "동에": 7051,
      "려는": 7052,
      "인가": 7053,
      "기술은": 7054,
      "개발자": 7055,
      "이상으로": 7056,
      "인상이": 7057,
      "하려면": 7058,
      "버추얼": 7059,
      "성은": 7060,
      "신임": 7061,
      "종류": 7062,
      "책을": 7063,
      "타이어": 7064,
      "팩트": 7065,
      "00억원": 7066,
      "가격의": 7067,
      "왼쪽부터": 7068,
      "디폴트옵션": 7069,
      "배럴당": 7070,
      "뉴얼": 7071,
      "리튬": 7072,
      "유료": 7073,
      "있었던": 7074,
      "사업체": 7075,
      "높아지고": 7076,
      "지적이": 7077,
      "특별한": 7078,
      "개장": 7079,
      "걱정": 7080,
      "과제를": 7081,
      "기상": 7082,
      "단을": 7083,
      "용품": 7084,
      "고객들에게": 7085,
      "증가하고": 7086,
      "브랜드를": 7087,
      "스트리밍": 7088,
      "파운드리": 7089,
      "원희룡": 7090,
      "그나": 7091,
      "버거": 7092,
      "사건": 7093,
      "소설": 7094,
      "안심": 7095,
      "않으면": 7096,
      "위믹스": 7097,
      "축적": 7098,
      "확대될": 7099,
      "예상되는": 7100,
      "긍정적인": 7101,
      "SA": 7102,
      "농가": 7103,
      "느끼": 7104,
      "므로": 7105,
      "번호": 7106,
      "복잡": 7107,
      "성도": 7108,
      "스코": 7109,
      "신도시": 7110,
      "안팎": 7111,
      "대한상의": 7112,
      "판매한다": 7113,
      "코로나바이러스": 7114,
      "2년간": 7115,
      "제시한": 7116,
      "사례를": 7117,
      "조선해양": 7118,
      "DF": 7119,
      "대거": 7120,
      "인출": 7121,
      "줄일": 7122,
      "지시": 7123,
      "처벌": 7124,
      "투표": 7125,
      "서비스에": 7126,
      "고등과학원": 7127,
      "더블": 7128,
      "세일": 7129,
      "싶은": 7130,
      "트라": 7131,
      "페이지를": 7132,
      "일본의": 7133,
      "설립된": 7134,
      "오리지널": 7135,
      "명령": 7136,
      "입국": 7137,
      "화해": 7138,
      "자리에서": 7139,
      "가입자": 7140,
      "SSG닷컴": 7141,
      "BMW": 7142,
      "기와": 7143,
      "나무": 7144,
      "선수": 7145,
      "한국전력": 7146,
      "기반을": 7147,
      "걸리": 7148,
      "농축": 7149,
      "서부": 7150,
      "종사": 7151,
      "주주가": 7152,
      "따라서": 7153,
      "업체의": 7154,
      "활동에": 7155,
      "포함된": 7156,
      "선정됐다": 7157,
      "요인이": 7158,
      "최적의": 7159,
      "2개월": 7160,
      "Re": 7161,
      "내놨": 7162,
      "로이터": 7163,
      "시그": 7164,
      "엔비": 7165,
      "일어": 7166,
      "일제": 7167,
      "저는": 7168,
      "탐사": 7169,
      "흥행": 7170,
      "운영을": 7171,
      "구조를": 7172,
      "고용노동": 7173,
      "3D": 7174,
      "7000": 7175,
      "PF": 7176,
      "TI": 7177,
      "리바": 7178,
      "말한다": 7179,
      "메디": 7180,
      "원활": 7181,
      "고객은": 7182,
      "상품의": 7183,
      "소비자들의": 7184,
      "환율이": 7185,
      "에이치": 7186,
      "형태의": 7187,
      "나서고": 7188,
      "MC": 7189,
      "신사업": 7190,
      "자릿": 7191,
      "주류": 7192,
      "질의": 7193,
      "키로": 7194,
      "트레이": 7195,
      "페스티": 7196,
      "하락세를": 7197,
      "구조조정": 7198,
      "동시": 7199,
      "때마다": 7200,
      "마진": 7201,
      "부한": 7202,
      "아르": 7203,
      "연말까지": 7204,
      "차원의": 7205,
      "태평양": 7206,
      "회생": 7207,
      "성장률": 7208,
      "경기가": 7209,
      "업체가": 7210,
      "적용한": 7211,
      "바이오로직": 7212,
      "임대주택": 7213,
      "실시간으로": 7214,
      "선제적으로": 7215,
      "는지": 7216,
      "됨에": 7217,
      "맞게": 7218,
      "경제적": 7219,
      "부문의": 7220,
      "변화에": 7221,
      "올리브": 7222,
      "애니메이션": 7223,
      "8개": 7224,
      "na": 7225,
      "말을": 7226,
      "문화를": 7227,
      "압력": 7228,
      "여객": 7229,
      "오고": 7230,
      "콘셉": 7231,
      "한시": 7232,
      "신용대출": 7233,
      "높아질": 7234,
      "감염증": 7235,
      "완전히": 7236,
      "프린스턴대": 7237,
      "엔비디아": 7238,
      "CS": 7239,
      "긴밀": 7240,
      "팩토리": 7241,
      "포털": 7242,
      "상품에": 7243,
      "참여했다": 7244,
      "인플레이션이": 7245,
      "요인으로": 7246,
      "현황을": 7247,
      "별도의": 7248,
      "직장인": 7249,
      "그만큼": 7250,
      "농촌": 7251,
      "말했습니다": 7252,
      "매물": 7253,
      "무게": 7254,
      "보를": 7255,
      "속도가": 7256,
      "수혜": 7257,
      "퀘어": 7258,
      "퍼스": 7259,
      "예정인": 7260,
      "증가하는": 7261,
      "자산관리": 7262,
      "국민연금": 7263,
      "시행령": 7264,
      "점검하고": 7265,
      "변동성이": 7266,
      "인프라를": 7267,
      "수익률을": 7268,
      "무역수지": 7269,
      "추첨을": 7270,
      "4차": 7271,
      "5000억원": 7272,
      "om": 7273,
      "사라": 7274,
      "하회": 7275,
      "2차전지": 7276,
      "주장했다": 7277,
      "NH농협": 7278,
      "과도한": 7279,
      "페스티벌": 7280,
      "P2": 7281,
      "노사": 7282,
      "달했다": 7283,
      "라운": 7284,
      "커진": 7285,
      "전국경제인": 7286,
      "건강한": 7287,
      "부회장이": 7288,
      "ve": 7289,
      "시대를": 7290,
      "진정": 7291,
      "한때": 7292,
      "출시했다고": 7293,
      "카드는": 7294,
      "자체가": 7295,
      "마이너스": 7296,
      "FC": 7297,
      "ver": 7298,
      "변이": 7299,
      "빨리": 7300,
      "엔데믹": 7301,
      "청정": 7302,
      "팝업": 7303,
      "펼쳐": 7304,
      "피부": 7305,
      "피트": 7306,
      "서비스다": 7307,
      "전문기업": 7308,
      "데이터센터": 7309,
      "업체인": 7310,
      "만들고": 7311,
      "지분을": 7312,
      "동일한": 7313,
      "건조": 7314,
      "남성": 7315,
      "되도록": 7316,
      "벗어나": 7317,
      "융자": 7318,
      "크레": 7319,
      "함에": 7320,
      "진행되는": 7321,
      "구축해": 7322,
      "방식이다": 7323,
      "3년간": 7324,
      "유가증권": 7325,
      "정상화": 7326,
      "3시": 7327,
      "나왔": 7328,
      "도쿄": 7329,
      "인력을": 7330,
      "트랜": 7331,
      "가능하며": 7332,
      "바이든": 7333,
      "노력할": 7334,
      "1개": 7335,
      "II": 7336,
      "세금": 7337,
      "세상": 7338,
      "알고": 7339,
      "연대": 7340,
      "컬렉": 7341,
      "트롤": 7342,
      "2013년": 7343,
      "제공된다": 7344,
      "억원에서": 7345,
      "교수의": 7346,
      "방향으로": 7347,
      "상승률을": 7348,
      "석유화학": 7349,
      "맞이": 7350,
      "식으로": 7351,
      "입점": 7352,
      "한경": 7353,
      "한국형": 7354,
      "개발했다": 7355,
      "제품에": 7356,
      "판매를": 7357,
      "국토부는": 7358,
      "이마트24": 7359,
      "현실화": 7360,
      "내리": 7361,
      "전화": 7362,
      "주얼": 7363,
      "티몬": 7364,
      "퍼니": 7365,
      "포항": 7366,
      "이용자가": 7367,
      "국제선": 7368,
      "하반기에": 7369,
      "목표다": 7370,
      "비율을": 7371,
      "진단했다": 7372,
      "GS25": 7373,
      "지하철": 7374,
      "측면에서": 7375,
      "PE": 7376,
      "다하겠다": 7377,
      "마저": 7378,
      "방한": 7379,
      "위주로": 7380,
      "지키": 7381,
      "차가": 7382,
      "최우선": 7383,
      "개발하고": 7384,
      "레이터": 7385,
      "유지하고": 7386,
      "3명": 7387,
      "노미": 7388,
      "높이기": 7389,
      "모드": 7390,
      "유산": 7391,
      "입어": 7392,
      "증여": 7393,
      "침공": 7394,
      "하더라도": 7395,
      "시장에서는": 7396,
      "전망을": 7397,
      "구성해": 7398,
      "이벤트도": 7399,
      "최저가": 7400,
      "지능형": 7401,
      "소개했다": 7402,
      "350": 7403,
      "3000억원": 7404,
      "내수": 7405,
      "려면": 7406,
      "만이": 7407,
      "매월": 7408,
      "스태그": 7409,
      "오일": 7410,
      "위안": 7411,
      "컨센서": 7412,
      "화한": 7413,
      "된다고": 7414,
      "산업에": 7415,
      "전망치를": 7416,
      "출시된": 7417,
      "추진하는": 7418,
      "방안도": 7419,
      "네이버웹툰": 7420,
      "협업해": 7421,
      "전날보다": 7422,
      "다운로드": 7423,
      "TSM": 7424,
      "기온": 7425,
      "단위로": 7426,
      "자랑": 7427,
      "재택": 7428,
      "체육": 7429,
      "컸다": 7430,
      "이어지는": 7431,
      "공급이": 7432,
      "해외여행": 7433,
      "외국인과": 7434,
      "25일": 7435,
      "거시": 7436,
      "겨냥": 7437,
      "단지는": 7438,
      "바디": 7439,
      "시원": 7440,
      "이더": 7441,
      "착용": 7442,
      "흡수": 7443,
      "세계적으로": 7444,
      "사용해": 7445,
      "적용할": 7446,
      "li": 7447,
      "나누": 7448,
      "음에도": 7449,
      "즈는": 7450,
      "쿠라": 7451,
      "나타냈다": 7452,
      "조합원": 7453,
      "자료사진": 7454,
      "ISO": 7455,
      "건전성": 7456,
      "26일": 7457,
      "단일": 7458,
      "잠정": 7459,
      "특례": 7460,
      "퍼즐": 7461,
      "하다고": 7462,
      "주가를": 7463,
      "반영한": 7464,
      "4개월": 7465,
      "9천": 7466,
      "높였다": 7467,
      "소스": 7468,
      "어로": 7469,
      "에너": 7470,
      "엘리": 7471,
      "일주일": 7472,
      "증명": 7473,
      "이라면서": 7474,
      "사업으로": 7475,
      "우리는": 7476,
      "위기에": 7477,
      "장비를": 7478,
      "소개하고": 7479,
      "홈페이지에서": 7480,
      "스태그플레이션": 7481,
      "TSMC": 7482,
      "만두": 7483,
      "쓰레": 7484,
      "연초": 7485,
      "임시": 7486,
      "초등": 7487,
      "컬러": 7488,
      "환급": 7489,
      "힘들": 7490,
      "수출입": 7491,
      "안정을": 7492,
      "수상한": 7493,
      "투자자들이": 7494,
      "책임을": 7495,
      "생태계를": 7496,
      "IMF": 7497,
      "LT": 7498,
      "Mo": 7499,
      "격려": 7500,
      "다누": 7501,
      "렉트": 7502,
      "살아": 7503,
      "수정": 7504,
      "씨가": 7505,
      "아무": 7506,
      "양호": 7507,
      "의원은": 7508,
      "폭은": 7509,
      "시키고": 7510,
      "서초구": 7511,
      "사모펀드": 7512,
      "문학": 7513,
      "셀러": 7514,
      "아산": 7515,
      "오래": 7516,
      "인더": 7517,
      "주인": 7518,
      "키움": 7519,
      "패널": 7520,
      "피해가": 7521,
      "필요하다고": 7522,
      "2회": 7523,
      "권한": 7524,
      "높게": 7525,
      "리포": 7526,
      "식당": 7527,
      "연봉": 7528,
      "추출": 7529,
      "취지": 7530,
      "2009년": 7531,
      "부산세계박람회": 7532,
      "늘어나는": 7533,
      "구글플레이": 7534,
      "end": 7535,
      "SK텔레콤은": 7536,
      "DNA": 7537,
      "ON": 7538,
      "개로": 7539,
      "광역": 7540,
      "네시아": 7541,
      "동아": 7542,
      "만약": 7543,
      "범위를": 7544,
      "부모": 7545,
      "커지면서": 7546,
      "키트": 7547,
      "지난주": 7548,
      "미국에서": 7549,
      "물가상승": 7550,
      "업계가": 7551,
      "수준에": 7552,
      "마련해": 7553,
      "점검을": 7554,
      "가맹점": 7555,
      "스러운": 7556,
      "30년": 7557,
      "2021": 7558,
      "인도네시아": 7559,
      "아웃링크": 7560,
      "시너지를": 7561,
      "2위": 7562,
      "그렇게": 7563,
      "디션": 7564,
      "매력": 7565,
      "쓰는": 7566,
      "예매": 7567,
      "일은": 7568,
      "잇따라": 7569,
      "풀어": 7570,
      "분석해": 7571,
      "회장의": 7572,
      "신한금융투자": 7573,
      "결정을": 7574,
      "편리하게": 7575,
      "브리핑": 7576,
      "AA": 7577,
      "갈아": 7578,
      "국면": 7579,
      "만을": 7580,
      "중계": 7581,
      "서비스도": 7582,
      "전망도": 7583,
      "정책이": 7584,
      "플랫폼으로": 7585,
      "확인됐다": 7586,
      "구매하는": 7587,
      "조치가": 7588,
      "81": 7589,
      "개척": 7590,
      "농식품": 7591,
      "드시": 7592,
      "보조": 7593,
      "빌딩": 7594,
      "안은": 7595,
      "유발": 7596,
      "이르": 7597,
      "한국과학기술": 7598,
      "10시": 7599,
      "국내에": 7600,
      "라이트": 7601,
      "주택을": 7602,
      "적용된": 7603,
      "KT의": 7604,
      "마련됐다": 7605,
      "구체적으로": 7606,
      "71": 7607,
      "권리": 7608,
      "보가": 7609,
      "식약": 7610,
      "요즘": 7611,
      "잔액은": 7612,
      "전주": 7613,
      "컴퍼니": 7614,
      "팀을": 7615,
      "혹은": 7616,
      "전용면적": 7617,
      "책임자": 7618,
      "업데이트를": 7619,
      "카이스트": 7620,
      "4호": 7621,
      "··": 7622,
      "대리": 7623,
      "도쿠라": 7624,
      "미칠": 7625,
      "빅테크": 7626,
      "시멘트": 7627,
      "이었던": 7628,
      "혐의": 7629,
      "대상을": 7630,
      "SK이노베이션": 7631,
      "증시는": 7632,
      "우리나라의": 7633,
      "임대차": 7634,
      "네트워크를": 7635,
      "발언을": 7636,
      "OP": 7637,
      "yna": 7638,
      "근본": 7639,
      "식물": 7640,
      "앤드": 7641,
      "장착": 7642,
      "재배": 7643,
      "환경에": 7644,
      "공급하는": 7645,
      "회사를": 7646,
      "5월까지": 7647,
      "실질적인": 7648,
      "국제공항": 7649,
      "일제히": 7650,
      "식약처": 7651,
      "QLED": 7652,
      "그쳤다": 7653,
      "다각": 7654,
      "단축": 7655,
      "돌려": 7656,
      "빠져": 7657,
      "사들의": 7658,
      "성구": 7659,
      "찾은": 7660,
      "토대로": 7661,
      "성장이": 7662,
      "세계에서": 7663,
      "기록하고": 7664,
      "위원은": 7665,
      "CF": 7666,
      "고수": 7667,
      "다우": 7668,
      "어제": 7669,
      "없다고": 7670,
      "30분": 7671,
      "제품으로": 7672,
      "나타났": 7673,
      "의미가": 7674,
      "신혼부부": 7675,
      "5조": 7676,
      "답했다": 7677,
      "무신": 7678,
      "민관": 7679,
      "어업": 7680,
      "원이다": 7681,
      "인용": 7682,
      "서비스로": 7683,
      "기록하며": 7684,
      "공동으로": 7685,
      "모델링": 7686,
      "준비하고": 7687,
      "이뤄졌다": 7688,
      "공모전": 7689,
      "하우스": 7690,
      "08": 7691,
      "ur": 7692,
      "간다": 7693,
      "누릴": 7694,
      "명에게": 7695,
      "산화": 7696,
      "탄생": 7697,
      "서비스와": 7698,
      "위해서": 7699,
      "확대하는": 7700,
      "시작해": 7701,
      "사이언스": 7702,
      "있어서": 7703,
      "고를": 7704,
      "로지": 7705,
      "맛을": 7706,
      "법령": 7707,
      "산학": 7708,
      "심을": 7709,
      "인접": 7710,
      "증설": 7711,
      "대비해": 7712,
      "센터는": 7713,
      "결정했다": 7714,
      "선보이는": 7715,
      "오르면서": 7716,
      "금감원은": 7717,
      "지식재산": 7718,
      "저축은행": 7719,
      "카테고리": 7720,
      "한국항공우주연구원": 7721,
      "것처럼": 7722,
      "나와": 7723,
      "두산": 7724,
      "만달러": 7725,
      "분해": 7726,
      "야외": 7727,
      "어비스": 7728,
      "우연": 7729,
      "채택": 7730,
      "화성": 7731,
      "차량용": 7732,
      "감시": 7733,
      "개미": 7734,
      "나가는": 7735,
      "받침": 7736,
      "석사": 7737,
      "올릴": 7738,
      "정은": 7739,
      "정지": 7740,
      "창원": 7741,
      "캐시": 7742,
      "힘입어": 7743,
      "고객과": 7744,
      "상품권": 7745,
      "대출금리": 7746,
      "결의": 7747,
      "느냐": 7748,
      "맞은": 7749,
      "보관": 7750,
      "소요": 7751,
      "장으로": 7752,
      "타입": 7753,
      "휴대": 7754,
      "2050": 7755,
      "이라면": 7756,
      "알려진": 7757,
      "그라운드": 7758,
      "시중은행": 7759,
      "번역": 7760,
      "의회": 7761,
      "입사": 7762,
      "태국": 7763,
      "핀테크": 7764,
      "발전소": 7765,
      "구성된다": 7766,
      "의미다": 7767,
      "시대에": 7768,
      "이더리움": 7769,
      "3억원": 7770,
      "9일": 7771,
      "견인": 7772,
      "뒷받침": 7773,
      "로켓": 7774,
      "리의": 7775,
      "뱅킹": 7776,
      "업황": 7777,
      "요건": 7778,
      "전공": 7779,
      "정유사": 7780,
      "트럭": 7781,
      "해진": 7782,
      "행사는": 7783,
      "8조": 7784,
      "받기": 7785,
      "법적": 7786,
      "앞장": 7787,
      "위성이": 7788,
      "한국은": 7789,
      "중소기업의": 7790,
      "30일까지": 7791,
      "차량을": 7792,
      "보여주는": 7793,
      "이재용": 7794,
      "RE100": 7795,
      "지속가능경영": 7796,
      "노벨상": 7797,
      "인건비": 7798,
      "us": 7799,
      "대웅": 7800,
      "반드시": 7801,
      "배제": 7802,
      "승인을": 7803,
      "언트": 7804,
      "처분": 7805,
      "취향": 7806,
      "투데이": 7807,
      "제공하기": 7808,
      "10대": 7809,
      "상승이": 7810,
      "됐다는": 7811,
      "상품이": 7812,
      "인상에": 7813,
      "경쟁이": 7814,
      "하면서도": 7815,
      "변동성": 7816,
      "주담대": 7817,
      "성능검증위성": 7818,
      "ay": 7819,
      "듣고": 7820,
      "부당": 7821,
      "생성": 7822,
      "임명": 7823,
      "타깃": 7824,
      "효성": 7825,
      "진행되고": 7826,
      "참여를": 7827,
      "직원이": 7828,
      "비교적": 7829,
      "과기정통부는": 7830,
      "03": 7831,
      "권역": 7832,
      "납부": 7833,
      "내비": 7834,
      "대내외": 7835,
      "맥스": 7836,
      "선거": 7837,
      "아티": 7838,
      "여명이": 7839,
      "접종": 7840,
      "제에": 7841,
      "패턴": 7842,
      "한국에서": 7843,
      "산업단지": 7844,
      "자동화": 7845,
      "는데요": 7846,
      "부족한": 7847,
      "자유롭게": 7848,
      "내놓은": 7849,
      "목소리가": 7850,
      "급격한": 7851,
      "마이크로소프트": 7852,
      "WSJ": 7853,
      "BB": 7854,
      "oT": 7855,
      "관점에서": 7856,
      "농림": 7857,
      "양도": 7858,
      "컴투": 7859,
      "키워": 7860,
      "기대감": 7861,
      "23년": 7862,
      "대통령실": 7863,
      "위험이": 7864,
      "페이스북": 7865,
      "SRT": 7866,
      "블룸버그": 7867,
      "am": 7868,
      "상이다": 7869,
      "수시": 7870,
      "스퀘어": 7871,
      "유력": 7872,
      "일괄": 7873,
      "주체": 7874,
      "장관과": 7875,
      "구글이": 7876,
      "애플은": 7877,
      "인천공항": 7878,
      "만들기": 7879,
      "필요하다는": 7880,
      "급격히": 7881,
      "6조": 7882,
      "RA": 7883,
      "he": 7884,
      "모여": 7885,
      "분산": 7886,
      "불러": 7887,
      "적자가": 7888,
      "지속가능한": 7889,
      "기간이": 7890,
      "7월부터": 7891,
      "대응을": 7892,
      "도입을": 7893,
      "유니폼": 7894,
      "비상경제장관": 7895,
      "MMO": 7896,
      "경상": 7897,
      "공학": 7898,
      "리그": 7899,
      "망을": 7900,
      "모멘": 7901,
      "빗썸": 7902,
      "수리": 7903,
      "스마": 7904,
      "잡기": 7905,
      "기술적": 7906,
      "경우에는": 7907,
      "들어가": 7908,
      "강화할": 7909,
      "포인트를": 7910,
      "결과가": 7911,
      "KB금융": 7912,
      "IPTV": 7913,
      "입장이다": 7914,
      "il": 7915,
      "배분": 7916,
      "부지": 7917,
      "윤리": 7918,
      "이면": 7919,
      "점과": 7920,
      "창구": 7921,
      "총재": 7922,
      "세계적": 7923,
      "마련할": 7924,
      "확보하고": 7925,
      "공개한": 7926,
      "모델로": 7927,
      "24년": 7928,
      "고려하면": 7929,
      "편의성을": 7930,
      "언급했다": 7931,
      "확진자": 7932,
      "6억": 7933,
      "난다": 7934,
      "다수의": 7935,
      "매달": 7936,
      "식에": 7937,
      "압력이": 7938,
      "지스타": 7939,
      "해질": 7940,
      "서비스의": 7941,
      "제품이다": 7942,
      "정책의": 7943,
      "내용의": 7944,
      "세종시": 7945,
      "무엇보다": 7946,
      "5명": 7947,
      "CB": 7948,
      "그레이드": 7949,
      "달라고": 7950,
      "직면": 7951,
      "하학": 7952,
      "테크노": 7953,
      "의미한다": 7954,
      "다음달": 7955,
      "상당의": 7956,
      "엔지니어링": 7957,
      "360": 7958,
      "골드": 7959,
      "공매도": 7960,
      "국책": 7961,
      "김동": 7962,
      "분당": 7963,
      "만원에서": 7964,
      "분석한": 7965,
      "최초의": 7966,
      "선택할": 7967,
      "크리에이": 7968,
      "6시": 7969,
      "GB": 7970,
      "교보": 7971,
      "의류": 7972,
      "전혀": 7973,
      "가능할": 7974,
      "달러에": 7975,
      "기관에": 7976,
      "항공기": 7977,
      "스마트팩토리": 7978,
      "결제를": 7979,
      "제고를": 7980,
      "제3자": 7981,
      "기름값": 7982,
      "제네시스": 7983,
      "모멘텀": 7984,
      "02": 7985,
      "대장": 7986,
      "도어": 7987,
      "뒤를": 7988,
      "드론": 7989,
      "보입니다": 7990,
      "쓰고": 7991,
      "주어": 7992,
      "태원": 7993,
      "편입": 7994,
      "지역으로": 7995,
      "추진해": 7996,
      "기대감이": 7997,
      "아이폰14": 7998,
      "없고": 7999,
      "역전": 8000,
      "유저": 8001,
      "기술의": 8002,
      "10억": 8003,
      "적용된다": 8004,
      "부문에서": 8005,
      "IoT": 8006,
      "NI": 8007,
      "ag": 8008,
      "로스": 8009,
      "먹거리": 8010,
      "부의": 8011,
      "신축": 8012,
      "외화": 8013,
      "워터": 8014,
      "접어": 8015,
      "커넥": 8016,
      "홀로": 8017,
      "물가는": 8018,
      "상품이다": 8019,
      "관리하는": 8020,
      "하반기에는": 8021,
      "나타나": 8022,
      "행사에서": 8023,
      "테크놀": 8024,
      "기후변화": 8025,
      "감안하면": 8026,
      "이트": 8027,
      "이틀": 8028,
      "추산": 8029,
      "펄어비스": 8030,
      "포구": 8031,
      "우리금융": 8032,
      "소비자의": 8033,
      "시스템이": 8034,
      "웨이브": 8035,
      "관측이": 8036,
      "NH투자증권": 8037,
      "반려동물": 8038,
      "투기과열": 8039,
      "3사": 8040,
      "게재": 8041,
      "단말": 8042,
      "수로": 8043,
      "았던": 8044,
      "이외에도": 8045,
      "좋지": 8046,
      "차관": 8047,
      "제품이": 8048,
      "신한은행은": 8049,
      "개최했다": 8050,
      "사고가": 8051,
      "상당히": 8052,
      "유일하게": 8053,
      "전국경제인연합회": 8054,
      "MMORPG": 8055,
      "VC": 8056,
      "갖춰": 8057,
      "낮춰": 8058,
      "되길": 8059,
      "세운": 8060,
      "연평균": 8061,
      "이온": 8062,
      "층의": 8063,
      "편집": 8064,
      "개발과": 8065,
      "하락할": 8066,
      "분석된다": 8067,
      "카드를": 8068,
      "조사됐다": 8069,
      "금액을": 8070,
      "공인": 8071,
      "나섰": 8072,
      "법정": 8073,
      "지노": 8074,
      "충북": 8075,
      "키아": 8076,
      "증권가": 8077,
      "업체들이": 8078,
      "우려도": 8079,
      "늘어나고": 8080,
      "떨어져": 8081,
      "투자자들의": 8082,
      "경력": 8083,
      "다니": 8084,
      "스카이": 8085,
      "차는": 8086,
      "채소": 8087,
      "탑승": 8088,
      "파일": 8089,
      "판을": 8090,
      "지역은": 8091,
      "센터장은": 8092,
      "안정화": 8093,
      "나가고": 8094,
      "정기예금": 8095,
      "BGF": 8096,
      "im": 8097,
      "고공": 8098,
      "고시": 8099,
      "과는": 8100,
      "권이": 8101,
      "기억": 8102,
      "박차를": 8103,
      "부장": 8104,
      "원천": 8105,
      "으니": 8106,
      "이영": 8107,
      "이들이": 8108,
      "인베스트": 8109,
      "캡처": 8110,
      "표면": 8111,
      "대한상공회의소": 8112,
      "조건을": 8113,
      "이창양": 8114,
      "되자": 8115,
      "생존": 8116,
      "선포": 8117,
      "이송": 8118,
      "입금": 8119,
      "추락": 8120,
      "혈액": 8121,
      "협조": 8122,
      "선정해": 8123,
      "성공적인": 8124,
      "요청했다": 8125,
      "유사한": 8126,
      "중대재해": 8127,
      "P2E": 8128,
      "1000억원": 8129,
      "3나노": 8130,
      "VR": 8131,
      "단은": 8132,
      "분쟁": 8133,
      "장르": 8134,
      "조명": 8135,
      "차관은": 8136,
      "커버": 8137,
      "관리에": 8138,
      "평가다": 8139,
      "성과급": 8140,
      "위원회가": 8141,
      "대응할": 8142,
      "검토하고": 8143,
      "영역을": 8144,
      "반응을": 8145,
      "2대": 8146,
      "230": 8147,
      "700": 8148,
      "고위": 8149,
      "그럼": 8150,
      "더니": 8151,
      "카즈": 8152,
      "협상을": 8153,
      "회선": 8154,
      "시장조": 8155,
      "지원하기": 8156,
      "기록을": 8157,
      "우리의": 8158,
      "개인이": 8159,
      "떨어질": 8160,
      "KB증권": 8161,
      "상담을": 8162,
      "석유류": 8163,
      "표준화": 8164,
      "대웅제약": 8165,
      "대금": 8166,
      "때도": 8167,
      "별도로": 8168,
      "본사에서": 8169,
      "얘기": 8170,
      "이랜드": 8171,
      "지불": 8172,
      "처방": 8173,
      "출근": 8174,
      "하라": 8175,
      "한국투자증권": 8176,
      "생산하는": 8177,
      "현재는": 8178,
      "국제수학": 8179,
      "개선이": 8180,
      "결과에": 8181,
      "스크린": 8182,
      "설립한": 8183,
      "인데요": 8184,
      "더불어민주당": 8185,
      "투기과열지구": 8186,
      "검은": 8187,
      "그랜드": 8188,
      "김승": 8189,
      "느낄": 8190,
      "손을": 8191,
      "업그레이드": 8192,
      "우유": 8193,
      "이커머스": 8194,
      "졸업": 8195,
      "학계": 8196,
      "서울에서": 8197,
      "판매량이": 8198,
      "활용하는": 8199,
      "기록했습니다": 8200,
      "전반적인": 8201,
      "시민들이": 8202,
      "멘토링": 8203,
      "선진국": 8204,
      "국제수학연맹": 8205,
      "9조": 8206,
      "MM": 8207,
      "든지": 8208,
      "리면서": 8209,
      "밖에도": 8210,
      "세상을": 8211,
      "적격": 8212,
      "투자는": 8213,
      "되는데": 8214,
      "삼성증권": 8215,
      "때문입니다": 8216,
      "매출액은": 8217,
      "우려로": 8218,
      "실적은": 8219,
      "GS리테일": 8220,
      "돼지고기": 8221,
      "2주": 8222,
      "EZ": 8223,
      "깊은": 8224,
      "낙찰": 8225,
      "납입": 8226,
      "높인": 8227,
      "담긴": 8228,
      "만명": 8229,
      "밝히": 8230,
      "월간": 8231,
      "잡았다": 8232,
      "전광": 8233,
      "청은": 8234,
      "특성을": 8235,
      "디자인을": 8236,
      "보고서에": 8237,
      "스트리트": 8238,
      "컬렉션": 8239,
      "개막": 8240,
      "겪는": 8241,
      "노총": 8242,
      "등락": 8243,
      "메리츠": 8244,
      "용인": 8245,
      "있지": 8246,
      "재편": 8247,
      "정규": 8248,
      "준법": 8249,
      "증진": 8250,
      "트래": 8251,
      "화상": 8252,
      "기업이다": 8253,
      "이번이": 8254,
      "성장세를": 8255,
      "관리할": 8256,
      "대해서": 8257,
      "확인하고": 8258,
      "대응해": 8259,
      "기능이": 8260,
      "and": 8261,
      "이마트는": 8262,
      "인플루": 8263,
      "피트니스": 8264,
      "6G": 8265,
      "PB": 8266,
      "높을": 8267,
      "도에": 8268,
      "마친": 8269,
      "발달": 8270,
      "발대": 8271,
      "배포": 8272,
      "복구": 8273,
      "삭제": 8274,
      "상가": 8275,
      "식용": 8276,
      "아야": 8277,
      "였고": 8278,
      "이코": 8279,
      "전북": 8280,
      "합작": 8281,
      "혔다": 8282,
      "분야를": 8283,
      "항공사": 8284,
      "감소할": 8285,
      "가계부채": 8286,
      "입주민": 8287,
      "목소리": 8288,
      "B2": 8289,
      "RI": 8290,
      "갈수록": 8291,
      "거론": 8292,
      "것입니다": 8293,
      "더스": 8294,
      "로도": 8295,
      "신기술": 8296,
      "전방": 8297,
      "준공": 8298,
      "터를": 8299,
      "패스": 8300,
      "한국부동산": 8301,
      "상반기에": 8302,
      "안정적": 8303,
      "모델이": 8304,
      "코리아는": 8305,
      "인재를": 8306,
      "사무실": 8307,
      "살펴보면": 8308,
      "LG이노텍은": 8309,
      "S는": 8310,
      "러닝": 8311,
      "부합": 8312,
      "실장": 8313,
      "자극": 8314,
      "하드": 8315,
      "휴먼": 8316,
      "이어가": 8317,
      "평가가": 8318,
      "이익을": 8319,
      "1조원": 8320,
      "거리에": 8321,
      "기지국": 8322,
      "마사카즈": 8323,
      "GPU": 8324,
      "들고": 8325,
      "리며": 8326,
      "사들": 8327,
      "선행": 8328,
      "성분": 8329,
      "안타": 8330,
      "일대": 8331,
      "지갑": 8332,
      "지게": 8333,
      "청사": 8334,
      "커리": 8335,
      "관계자들이": 8336,
      "라인을": 8337,
      "실시한": 8338,
      "제출한": 8339,
      "대처": 8340,
      "밝혀": 8341,
      "부작용": 8342,
      "상회": 8343,
      "소화": 8344,
      "얻을": 8345,
      "지점": 8346,
      "홈플러스": 8347,
      "홈페이지를": 8348,
      "회에서": 8349,
      "횡령": 8350,
      "판매량은": 8351,
      "현대백화점": 8352,
      "반도체를": 8353,
      "180": 8354,
      "문제로": 8355,
      "여행을": 8356,
      "쌍용자동차": 8357,
      "GWh": 8358,
      "IBK": 8359,
      "시장조사업체": 8360,
      "거점": 8361,
      "과감": 8362,
      "당일": 8363,
      "대수기": 8364,
      "덕수": 8365,
      "막걸리": 8366,
      "미술": 8367,
      "웹소설": 8368,
      "포기": 8369,
      "발생했다": 8370,
      "현장에": 8371,
      "경험이": 8372,
      "배터리를": 8373,
      "폐기물": 8374,
      "아티스트": 8375,
      "9개": 8376,
      "ID": 8377,
      "ut": 8378,
      "부각": 8379,
      "의해": 8380,
      "전사": 8381,
      "전역": 8382,
      "졌고": 8383,
      "컨트롤": 8384,
      "헤지": 8385,
      "에너지정책": 8386,
      "준비했다": 8387,
      "패키징": 8388,
      "무료로": 8389,
      "Wh": 8390,
      "목을": 8391,
      "분들이": 8392,
      "식이": 8393,
      "실물": 8394,
      "월평균": 8395,
      "이르면": 8396,
      "이사장": 8397,
      "잡을": 8398,
      "클러스": 8399,
      "해왔": 8400,
      "기업집단": 8401,
      "11개": 8402,
      "적용되는": 8403,
      "성공한": 8404,
      "의견이": 8405,
      "미래에셋증권": 8406,
      "인베스트먼트": 8407,
      "2시": 8408,
      "가졌다": 8409,
      "렌즈": 8410,
      "사장이": 8411,
      "제이": 8412,
      "해지고": 8413,
      "힘든": 8414,
      "개인의": 8415,
      "확인했다": 8416,
      "효과적으로": 8417,
      "신용융자": 8418,
      "조직을": 8419,
      "자이너": 8420,
      "자이언트": 8421,
      "St": 8422,
      "ir": 8423,
      "거리를": 8424,
      "계기가": 8425,
      "권의": 8426,
      "논문": 8427,
      "다섯": 8428,
      "디자이너": 8429,
      "미분양": 8430,
      "법이": 8431,
      "온도": 8432,
      "정체": 8433,
      "찾기": 8434,
      "피크": 8435,
      "12일": 8436,
      "인상으로": 8437,
      "나타나고": 8438,
      "구성됐다": 8439,
      "매수세가": 8440,
      "이뤄진": 8441,
      "알려져": 8442,
      "리조트": 8443,
      "내놨다": 8444,
      "3AC": 8445,
      "4000억원": 8446,
      "개시": 8447,
      "그의": 8448,
      "노키아": 8449,
      "돕는": 8450,
      "블리": 8451,
      "수에": 8452,
      "저작": 8453,
      "예정된": 8454,
      "지수를": 8455,
      "수준인": 8456,
      "신청할": 8457,
      "신용카드": 8458,
      "논의를": 8459,
      "이제는": 8460,
      "프로모션을": 8461,
      "파트너십을": 8462,
      "적절한": 8463,
      "거리두기": 8464,
      "11일": 8465,
      "2명": 8466,
      "2층": 8467,
      "ig": 8468,
      "기쁘": 8469,
      "마의": 8470,
      "모은": 8471,
      "못해": 8472,
      "티켓": 8473,
      "상황은": 8474,
      "40년": 8475,
      "예상보다": 8476,
      "방안에": 8477,
      "높아졌다": 8478,
      "심각한": 8479,
      "한일재계회의": 8480,
      "250": 8481,
      "국방": 8482,
      "남미": 8483,
      "도출": 8484,
      "동국제": 8485,
      "모레": 8486,
      "민주": 8487,
      "출금": 8488,
      "카운": 8489,
      "커지는": 8490,
      "표를": 8491,
      "향한": 8492,
      "정부에서": 8493,
      "196": 8494,
      "지원금": 8495,
      "이상인": 8496,
      "상품과": 8497,
      "경우도": 8498,
      "100만원": 8499,
      "확보할": 8500,
      "가구가": 8501,
      "금감원": 8502,
      "데브": 8503,
      "았습니다": 8504,
      "음원": 8505,
      "즐기는": 8506,
      "통장": 8507,
      "핀란드": 8508,
      "선보이고": 8509,
      "소통을": 8510,
      "제휴를": 8511,
      "가파른": 8512,
      "CNBC": 8513,
      "900": 8514,
      "동남아": 8515,
      "배추": 8516,
      "부상": 8517,
      "비비": 8518,
      "사막": 8519,
      "얼굴": 8520,
      "정말": 8521,
      "지자": 8522,
      "치면서": 8523,
      "패러": 8524,
      "으로도": 8525,
      "위해선": 8526,
      "진행될": 8527,
      "함께하는": 8528,
      "하락을": 8529,
      "시스템에": 8530,
      "건설이": 8531,
      "신한울": 8532,
      "수수료를": 8533,
      "스럽게": 8534,
      "ad": 8535,
      "tv": 8536,
      "강연": 8537,
      "고성능": 8538,
      "니어": 8539,
      "다누리": 8540,
      "되었다": 8541,
      "비자": 8542,
      "상금": 8543,
      "순간": 8544,
      "신산업": 8545,
      "육박": 8546,
      "전동": 8547,
      "판매량": 8548,
      "참여한다": 8549,
      "우려에": 8550,
      "상태를": 8551,
      "계속해서": 8552,
      "이뤄질": 8553,
      "가게": 8554,
      "그림": 8555,
      "김성": 8556,
      "김주": 8557,
      "대량": 8558,
      "물량을": 8559,
      "상대로": 8560,
      "유해": 8561,
      "20대": 8562,
      "수요에": 8563,
      "방식의": 8564,
      "위험을": 8565,
      "클래스": 8566,
      "인플루언": 8567,
      "um": 8568,
      "간접": 8569,
      "공학과": 8570,
      "나은": 8571,
      "도모": 8572,
      "두드러": 8573,
      "막기": 8574,
      "맺고": 8575,
      "몰입": 8576,
      "미르": 8577,
      "사법": 8578,
      "신흥": 8579,
      "앞에서": 8580,
      "정이": 8581,
      "타격을": 8582,
      "트윈": 8583,
      "특구": 8584,
      "폭발": 8585,
      "푸르": 8586,
      "있다면": 8587,
      "LG화학": 8588,
      "안정적으로": 8589,
      "국민고통": 8590,
      "가상인간": 8591,
      "Ad": 8592,
      "EX": 8593,
      "PP": 8594,
      "ap": 8595,
      "끌고": 8596,
      "레저": 8597,
      "렉스": 8598,
      "사료": 8599,
      "생애": 8600,
      "여유": 8601,
      "오토": 8602,
      "우영": 8603,
      "유진": 8604,
      "직을": 8605,
      "쾌적": 8606,
      "팀이": 8607,
      "풍부한": 8608,
      "만원에": 8609,
      "변화가": 8610,
      "현대차는": 8611,
      "이야기를": 8612,
      "2025년까지": 8613,
      "이탈리아": 8614,
      "대표이사는": 8615,
      "3가지": 8616,
      "5억원": 8617,
      "건수는": 8618,
      "금호": 8619,
      "순차": 8620,
      "전원": 8621,
      "크루": 8622,
      "이어졌다": 8623,
      "침체에": 8624,
      "네이버는": 8625,
      "방송통신": 8626,
      "상무는": 8627,
      "대우조선해양": 8628,
      "미세먼": 8629,
      "TS": 8630,
      "러스트": 8631,
      "마치": 8632,
      "매김": 8633,
      "바꿔": 8634,
      "본점": 8635,
      "셔널": 8636,
      "수십": 8637,
      "야놀": 8638,
      "있으나": 8639,
      "플라이": 8640,
      "향이": 8641,
      "시장과": 8642,
      "산업부는": 8643,
      "지원해": 8644,
      "2027년": 8645,
      "진행해": 8646,
      "지속되고": 8647,
      "아니냐는": 8648,
      "제도가": 8649,
      "구글과": 8650,
      "감염병": 8651,
      "레미콘운송": 8652,
      "상한제": 8653,
      "무역수지는": 8654,
      "행복주택": 8655,
      "AT": 8656,
      "나라는": 8657,
      "노트": 8658,
      "도서": 8659,
      "명시": 8660,
      "불안정": 8661,
      "수협": 8662,
      "오리": 8663,
      "인텔": 8664,
      "직무": 8665,
      "파생": 8666,
      "화와": 8667,
      "금융회사": 8668,
      "이후에도": 8669,
      "대해선": 8670,
      "과정에": 8671,
      "삼성전자와": 8672,
      "도입한": 8673,
      "자리매김": 8674,
      "외국환": 8675,
      "전장보다": 8676,
      "대수기하학": 8677,
      "FO": 8678,
      "ab": 8679,
      "거운": 8680,
      "결혼": 8681,
      "공지": 8682,
      "데미": 8683,
      "레스": 8684,
      "무너": 8685,
      "손님": 8686,
      "위생": 8687,
      "응용": 8688,
      "회수": 8689,
      "상승세가": 8690,
      "환경에서": 8691,
      "대상이": 8692,
      "11번": 8693,
      "개선에": 8694,
      "사이언": 8695,
      "애플이": 8696,
      "의미를": 8697,
      "게이트": 8698,
      "start": 8699,
      "선호하는": 8700,
      "논란이": 8701,
      "시켰다": 8702,
      "나눔": 8703,
      "말레이": 8704,
      "베르": 8705,
      "수면": 8706,
      "스톱": 8707,
      "어서": 8708,
      "크리스": 8709,
      "텍은": 8710,
      "전문성을": 8711,
      "업계에서": 8712,
      "부분이": 8713,
      "1997년": 8714,
      "신속하게": 8715,
      "임무를": 8716,
      "IN": 8717,
      "과일": 8718,
      "드린다": 8719,
      "성적": 8720,
      "소주": 8721,
      "송옥": 8722,
      "어워드": 8723,
      "오염": 8724,
      "이례": 8725,
      "조속": 8726,
      "축제": 8727,
      "학년": 8728,
      "한덕수": 8729,
      "현장을": 8730,
      "기자가": 8731,
      "수요는": 8732,
      "규제혁신": 8733,
      "생활건강": 8734,
      "혜택이": 8735,
      "수익률이": 8736,
      "프레임": 8737,
      "최적화된": 8738,
      "송옥렬": 8739,
      "레븐": 8740,
      "발령": 8741,
      "서머": 8742,
      "쉽고": 8743,
      "약물": 8744,
      "역사": 8745,
      "연일": 8746,
      "일레븐": 8747,
      "자발": 8748,
      "점점": 8749,
      "체를": 8750,
      "크지": 8751,
      "한국을": 8752,
      "10분": 8753,
      "지역별": 8754,
      "종목은": 8755,
      "보건복지": 8756,
      "어렵다는": 8757,
      "클러스터": 8758,
      "말레이시아": 8759,
      "CD": 8760,
      "늘면서": 8761,
      "루나": 8762,
      "영양": 8763,
      "자사의": 8764,
      "전선": 8765,
      "전력을": 8766,
      "좋다": 8767,
      "주방": 8768,
      "지기": 8769,
      "첫날": 8770,
      "프랜": 8771,
      "들어서": 8772,
      "수준이": 8773,
      "케이블": 8774,
      "증시의": 8775,
      "법인세": 8776,
      "자료에": 8777,
      "방송을": 8778,
      "인식을": 8779,
      "차질이": 8780,
      "간편하게": 8781,
      "메시지를": 8782,
      "7억": 8783,
      "넓은": 8784,
      "런던": 8785,
      "레버": 8786,
      "맞춘": 8787,
      "발로": 8788,
      "발전기": 8789,
      "보낸": 8790,
      "북구": 8791,
      "손쉽게": 8792,
      "씨의": 8793,
      "팀은": 8794,
      "투자와": 8795,
      "투자한": 8796,
      "운영할": 8797,
      "포함됐다": 8798,
      "있는데요": 8799,
      "신호를": 8800,
      "세븐일레븐": 8801,
      "SK브로드밴드": 8802,
      "5개월": 8803,
      "FP": 8804,
      "es": 8805,
      "se": 8806,
      "곳의": 8807,
      "남부": 8808,
      "따로": 8809,
      "려고": 8810,
      "수량": 8811,
      "강화하는": 8812,
      "건강기능": 8813,
      "고려한": 8814,
      "스테이지": 8815,
      "질문에": 8816,
      "패러다": 8817,
      "갖췄다": 8818,
      "개통": 8819,
      "경품": 8820,
      "과태": 8821,
      "다채": 8822,
      "되기를": 8823,
      "만난": 8824,
      "선착": 8825,
      "소진": 8826,
      "이기도": 8827,
      "인원": 8828,
      "징계": 8829,
      "테니스": 8830,
      "펀딩": 8831,
      "화로": 8832,
      "이라도": 8833,
      "지원이": 8834,
      "대표와": 8835,
      "받아야": 8836,
      "실시한다": 8837,
      "담보비율": 8838,
      "인포테인먼트": 8839,
      "강세를": 8840,
      "대환": 8841,
      "리모델링": 8842,
      "머물": 8843,
      "송금": 8844,
      "이의": 8845,
      "줄이기": 8846,
      "증을": 8847,
      "질을": 8848,
      "크립": 8849,
      "키즈": 8850,
      "트랙": 8851,
      "합격": 8852,
      "사업자가": 8853,
      "관계부처": 8854,
      "이미지를": 8855,
      "수익률은": 8856,
      "만나볼": 8857,
      "산업통상자원부는": 8858,
      "차이즈": 8859,
      "1층": 8860,
      "1개월": 8861,
      "뜻을": 8862,
      "료품": 8863,
      "어드": 8864,
      "연준이": 8865,
      "올여름": 8866,
      "인턴": 8867,
      "저감": 8868,
      "통보": 8869,
      "투자할": 8870,
      "지역사회": 8871,
      "소비재": 8872,
      "협력사": 8873,
      "하반기부터": 8874,
      "선정했다": 8875,
      "설치된": 8876,
      "강원도": 8877,
      "수학계의": 8878,
      "MR": 8879,
      "공사는": 8880,
      "다중": 8881,
      "성남": 8882,
      "아일": 8883,
      "영어": 8884,
      "10여": 8885,
      "개발하는": 8886,
      "미국이": 8887,
      "최대전력": 8888,
      "현재의": 8889,
      "기간보다": 8890,
      "센터장": 8891,
      "공공요금": 8892,
      "전년동기": 8893,
      "4월부터": 8894,
      "지급한다": 8895,
      "담당하는": 8896,
      "해양수산": 8897,
      "비전을": 8898,
      "연료비": 8899,
      "않아도": 8900,
      "상증자": 8901,
      "FDA": 8902,
      "KO": 8903,
      "경로": 8904,
      "리벨리": 8905,
      "병행": 8906,
      "아카": 8907,
      "어촌": 8908,
      "입법": 8909,
      "잖아요": 8910,
      "지명": 8911,
      "탓에": 8912,
      "판교": 8913,
      "포레": 8914,
      "기업가치": 8915,
      "한국은행이": 8916,
      "정부에": 8917,
      "1970": 8918,
      "만원의": 8919,
      "발표할": 8920,
      "유지할": 8921,
      "어려움이": 8922,
      "부분을": 8923,
      "높아진": 8924,
      "2022년형": 8925,
      "발굴하고": 8926,
      "경신했다": 8927,
      "리벨리온": 8928,
      "3차": 8929,
      "가루": 8930,
      "규칙": 8931,
      "김종": 8932,
      "당근": 8933,
      "로고": 8934,
      "미터": 8935,
      "송파": 8936,
      "없습니다": 8937,
      "응모": 8938,
      "충당": 8939,
      "평을": 8940,
      "발표를": 8941,
      "침체가": 8942,
      "요금제": 8943,
      "구글은": 8944,
      "인정받아": 8945,
      "유니콘": 8946,
      "DS": 8947,
      "드리": 8948,
      "법상": 8949,
      "시점에": 8950,
      "아름": 8951,
      "앱마켓": 8952,
      "유아": 8953,
      "이모": 8954,
      "전투": 8955,
      "절대": 8956,
      "정착": 8957,
      "제1": 8958,
      "조세": 8959,
      "10일까지": 8960,
      "산업협회": 8961,
      "제품과": 8962,
      "수상했다": 8963,
      "대부분의": 8964,
      "출범한": 8965,
      "궤도에": 8966,
      "건강기능식품": 8967,
      "4억": 8968,
      "갤러": 8969,
      "내역": 8970,
      "담았다": 8971,
      "리뉴얼": 8972,
      "모다": 8973,
      "사퇴": 8974,
      "서명": 8975,
      "선두": 8976,
      "얻고": 8977,
      "적지": 8978,
      "체의": 8979,
      "추후": 8980,
      "콘서": 8981,
      "증가세를": 8982,
      "설명했습니다": 8983,
      "전체의": 8984,
      "제작한": 8985,
      "살펴보고": 8986,
      "중견기업": 8987,
      "농림축산": 8988,
      "4배": 8989,
      "US": 8990,
      "of": 8991,
      "남은": 8992,
      "담합": 8993,
      "라운드": 8994,
      "랑데브": 8995,
      "보합": 8996,
      "수많은": 8997,
      "위성을": 8998,
      "이론": 8999,
      "전부터": 9000,
      "전분기": 9001,
      "증대": 9002,
      "팀장": 9003,
      "항만": 9004,
      "대응하기": 9005,
      "올랐습니다": 9006,
      "금액이": 9007,
      "공유하고": 9008,
      "스탠다": 9009,
      "공정거래위원장": 9010,
      "배틀그라운드": 9011,
      "시그니": 9012,
      "이코노미": 9013,
      "프랜차이즈": 9014,
      "CR": 9015,
      "꼽히는": 9016,
      "로의": 9017,
      "버튼": 9018,
      "비싸": 9019,
      "세요": 9020,
      "신재생에너지": 9021,
      "연은": 9022,
      "예치": 9023,
      "저널": 9024,
      "정원": 9025,
      "조한": 9026,
      "참고": 9027,
      "측이": 9028,
      "탐색": 9029,
      "폴리": 9030,
      "투자로": 9031,
      "예정입니다": 9032,
      "회장과": 9033,
      "사이에": 9034,
      "도시락": 9035,
      "만들었다": 9036,
      "여건이": 9037,
      "MA": 9038,
      "Pro": 9039,
      "감도": 9040,
      "눈길을": 9041,
      "둘째": 9042,
      "때보다": 9043,
      "빨라": 9044,
      "사기": 9045,
      "세입": 9046,
      "않다는": 9047,
      "양행": 9048,
      "였지만": 9049,
      "장면": 9050,
      "전인": 9051,
      "증상": 9052,
      "지어": 9053,
      "차익": 9054,
      "철학": 9055,
      "합류": 9056,
      "기록해": 9057,
      "지속해서": 9058,
      "최고치": 9059,
      "2300선": 9060,
      "CIO": 9061,
      "의존도가": 9062,
      "아카데미": 9063,
      "oo": 9064,
      "넥스트": 9065,
      "늘리고": 9066,
      "디즈": 9067,
      "복용": 9068,
      "선별": 9069,
      "위니": 9070,
      "하위": 9071,
      "현안": 9072,
      "호반": 9073,
      "한국계": 9074,
      "계획입니다": 9075,
      "기관으로": 9076,
      "노조가": 9077,
      "1월부터": 9078,
      "돌파했다": 9079,
      "ELS": 9080,
      "면담": 9081,
      "모으": 9082,
      "양식": 9083,
      "올리고": 9084,
      "원금": 9085,
      "의심": 9086,
      "지사": 9087,
      "피아": 9088,
      "해준다": 9089,
      "10만원": 9090,
      "가격과": 9091,
      "이어진": 9092,
      "대표하는": 9093,
      "지역이": 9094,
      "있어야": 9095,
      "유지했다": 9096,
      "담당은": 9097,
      "신속한": 9098,
      "포트폴리오를": 9099,
      "유한양행": 9100,
      "초등학교": 9101,
      "무신사": 9102,
      "2억원": 9103,
      "EF": 9104,
      "GPS": 9105,
      "끝에": 9106,
      "맞추": 9107,
      "밑돌": 9108,
      "섬유": 9109,
      "소매": 9110,
      "안드로": 9111,
      "양성을": 9112,
      "이승": 9113,
      "전후": 9114,
      "충청": 9115,
      "탈원전": 9116,
      "에서다": 9117,
      "20여": 9118,
      "사업법": 9119,
      "투자자의": 9120,
      "최대주주": 9121,
      "활동이": 9122,
      "확보한": 9123,
      "29회": 9124,
      "효율성을": 9125,
      "보증금": 9126,
      "와이파이": 9127,
      "한계가": 9128,
      "공익": 9129,
      "과천": 9130,
      "높다는": 9131,
      "수사": 9132,
      "았고": 9133,
      "이밖에": 9134,
      "저하": 9135,
      "줄이고": 9136,
      "티콘": 9137,
      "산업이": 9138,
      "지수도": 9139,
      "2005년": 9140,
      "그러니까": 9141,
      "자금이": 9142,
      "행사에": 9143,
      "관심과": 9144,
      "의료기기": 9145,
      "보고서에서": 9146,
      "긍정적": 9147,
      "이로써": 9148,
      "크립토": 9149,
      "농림축산식품": 9150,
      "5시": 9151,
      "AO": 9152,
      "뛰는": 9153,
      "불거": 9154,
      "상단": 9155,
      "약을": 9156,
      "임차": 9157,
      "호응": 9158,
      "회전": 9159,
      "에서만": 9160,
      "기술에": 9161,
      "이어지면서": 9162,
      "수출액은": 9163,
      "분석을": 9164,
      "나타날": 9165,
      "이벤트는": 9166,
      "건강보험": 9167,
      "이유다": 9168,
      "이하의": 9169,
      "방법으로": 9170,
      "달성했다": 9171,
      "발언하고": 9172,
      "마지막으로": 9173,
      "크리에이터": 9174,
      "아일랜드": 9175,
      "2200": 9176,
      "DR": 9177,
      "근원": 9178,
      "무려": 9179,
      "미널": 9180,
      "에버": 9181,
      "여야": 9182,
      "원스톱": 9183,
      "일에": 9184,
      "자국": 9185,
      "줄이는": 9186,
      "초이스": 9187,
      "항우연": 9188,
      "향해": 9189,
      "서비스인": 9190,
      "5일부터": 9191,
      "사용되는": 9192,
      "생산을": 9193,
      "발표된": 9194,
      "실적에": 9195,
      "발전에": 9196,
      "소재를": 9197,
      "확산을": 9198,
      "수행할": 9199,
      "철저히": 9200,
      "다누리는": 9201,
      "가깝": 9202,
      "감상": 9203,
      "결론": 9204,
      "때까지": 9205,
      "스카": 9206,
      "시급": 9207,
      "시나": 9208,
      "일로": 9209,
      "창수": 9210,
      "촉구": 9211,
      "함과": 9212,
      "후퇴": 9213,
      "사업이다": 9214,
      "경제를": 9215,
      "예정이며": 9216,
      "증가로": 9217,
      "경쟁을": 9218,
      "의무를": 9219,
      "52주": 9220,
      "철저한": 9221,
      "PCE": 9222,
      "거리가": 9223,
      "대회를": 9224,
      "면밀": 9225,
      "상상": 9226,
      "존중": 9227,
      "최태원": 9228,
      "흑자": 9229,
      "금융위": 9230,
      "지원에": 9231,
      "관계가": 9232,
      "확대와": 9233,
      "강화에": 9234,
      "5월부터": 9235,
      "사이에서": 9236,
      "강조한": 9237,
      "유럽연합": 9238,
      "신용평가": 9239,
      "펀드를": 9240,
      "소득이": 9241,
      "정비사업": 9242,
      "트렌드를": 9243,
      "연준의": 9244,
      "3회": 9245,
      "NE": 9246,
      "PM": 9247,
      "u200": 9248,
      "계정": 9249,
      "김진": 9250,
      "샤오미": 9251,
      "습니까": 9252,
      "시사": 9253,
      "시기에": 9254,
      "유용": 9255,
      "인물": 9256,
      "조만": 9257,
      "체제": 9258,
      "컨퍼런스": 9259,
      "티어": 9260,
      "20만": 9261,
      "정보가": 9262,
      "LG생활건강": 9263,
      "업체들의": 9264,
      "체결한": 9265,
      "아시아나": 9266,
      "점유율을": 9267,
      "하드웨어": 9268,
      "동국제강": 9269,
      "안드로이드": 9270,
      "aa": 9271,
      "녹십": 9272,
      "뛰었다": 9273,
      "마치고": 9274,
      "사양": 9275,
      "새벽": 9276,
      "심야": 9277,
      "웃돌": 9278,
      "장학": 9279,
      "진화": 9280,
      "초점을": 9281,
      "친화": 9282,
      "침수": 9283,
      "평택": 9284,
      "된다면": 9285,
      "고객사": 9286,
      "114": 9287,
      "브랜드의": 9288,
      "도입해": 9289,
      "가능성은": 9290,
      "리스크를": 9291,
      "ISA": 9292,
      "주관하는": 9293,
      "연구진은": 9294,
      "pe": 9295,
      "강릉": 9296,
      "공사가": 9297,
      "김상": 9298,
      "대용량": 9299,
      "박성": 9300,
      "셔츠": 9301,
      "시트": 9302,
      "시황": 9303,
      "연의": 9304,
      "열대": 9305,
      "영수": 9306,
      "월스트리트": 9307,
      "이원": 9308,
      "제2차": 9309,
      "크고": 9310,
      "터미널": 9311,
      "해시": 9312,
      "상승과": 9313,
      "안전관리": 9314,
      "상당한": 9315,
      "스테이트": 9316,
      "마음을": 9317,
      "이루어": 9318,
      "오미크론": 9319,
      "올리브영": 9320,
      "전광판에": 9321,
      "HK": 9322,
      "OEC": 9323,
      "근육": 9324,
      "대까지": 9325,
      "도매": 9326,
      "리스트": 9327,
      "발을": 9328,
      "배상": 9329,
      "밸리": 9330,
      "베스파": 9331,
      "삶을": 9332,
      "순수": 9333,
      "어야": 9334,
      "재판": 9335,
      "코딩": 9336,
      "큘럼": 9337,
      "티넨": 9338,
      "필드": 9339,
      "호재": 9340,
      "기업들과": 9341,
      "상품인": 9342,
      "성장하는": 9343,
      "에너지를": 9344,
      "구축할": 9345,
      "전력수요가": 9346,
      "자사주": 9347,
      "의약품안전": 9348,
      "캐피털": 9349,
      "아이디어를": 9350,
      "가파르게": 9351,
      "이종호": 9352,
      "커리큘럼": 9353,
      "OECD": 9354,
      "3분의": 9355,
      "3억달러": 9356,
      "FR": 9357,
      "bi": 9358,
      "강세": 9359,
      "니지": 9360,
      "발휘": 9361,
      "실습": 9362,
      "액의": 9363,
      "어를": 9364,
      "윤종": 9365,
      "이주": 9366,
      "자들에게": 9367,
      "코너": 9368,
      "평소": 9369,
      "플레": 9370,
      "대표의": 9371,
      "회사인": 9372,
      "설명하고": 9373,
      "자산이": 9374,
      "항공권": 9375,
      "구성돼": 9376,
      "자리에": 9377,
      "생활을": 9378,
      "넘어선": 9379,
      "주목을": 9380,
      "지니뮤직": 9381,
      "로드맵": 9382,
      "LG에너지솔루션은": 9383,
      "제3차": 9384,
      "시상식": 9385,
      "고공행진": 9386,
      "2000억원": 9387,
      "TDF": 9388,
      "경총": 9389,
      "과제로": 9390,
      "그리": 9391,
      "다주택": 9392,
      "동결": 9393,
      "머신": 9394,
      "먹는": 9395,
      "불가능": 9396,
      "센티브": 9397,
      "스킨": 9398,
      "앱에서": 9399,
      "응원": 9400,
      "이르는": 9401,
      "인과": 9402,
      "인센티브": 9403,
      "중동": 9404,
      "출장": 9405,
      "판결": 9406,
      "팔아": 9407,
      "혼합": 9408,
      "환산": 9409,
      "10억원": 9410,
      "확대했다": 9411,
      "시간에": 9412,
      "전략이다": 9413,
      "방안이": 9414,
      "지적도": 9415,
      "개정안": 9416,
      "농축수산물": 9417,
      "조만간": 9418,
      "티넨탈": 9419,
      "8시": 9420,
      "SS": 9421,
      "de": 9422,
      "가득": 9423,
      "거절": 9424,
      "매장을": 9425,
      "사스": 9426,
      "신동": 9427,
      "의혹": 9428,
      "종부": 9429,
      "주제": 9430,
      "청문": 9431,
      "필터": 9432,
      "허창수": 9433,
      "10명": 9434,
      "개발사": 9435,
      "지난해부터": 9436,
      "출시할": 9437,
      "늘어났다": 9438,
      "식품의약품안전": 9439,
      "부분은": 9440,
      "할인을": 9441,
      "지급하는": 9442,
      "영역에서": 9443,
      "관람객": 9444,
      "엘리베이": 9445,
      "산화탄소": 9446,
      "인플루언서": 9447,
      "7조": 9448,
      "KD": 9449,
      "공통": 9450,
      "김포": 9451,
      "낙폭을": 9452,
      "되기도": 9453,
      "방산": 9454,
      "상관": 9455,
      "상권": 9456,
      "의장": 9457,
      "일론": 9458,
      "재난": 9459,
      "중증": 9460,
      "착공": 9461,
      "책정": 9462,
      "티지": 9463,
      "포상": 9464,
      "학적": 9465,
      "화이트": 9466,
      "50대": 9467,
      "구축했다": 9468,
      "성과가": 9469,
      "운동을": 9470,
      "이프랜드": 9471,
      "To": 9472,
      "끄는": 9473,
      "내가": 9474,
      "뒀다": 9475,
      "복귀": 9476,
      "앞둔": 9477,
      "약세를": 9478,
      "연중": 9479,
      "점심": 9480,
      "집에서": 9481,
      "포괄": 9482,
      "지원하겠다": 9483,
      "때문으로": 9484,
      "확보하기": 9485,
      "자체적으로": 9486,
      "프로그램은": 9487,
      "꾸준한": 9488,
      "고양시": 9489,
      "8000억원": 9490,
      "김민": 9491,
      "내야": 9492,
      "마리": 9493,
      "만성": 9494,
      "말이": 9495,
      "무기": 9496,
      "법은": 9497,
      "쉬운": 9498,
      "져야": 9499,
      "지목": 9500,
      "축하": 9501,
      "특화된": 9502,
      "만원까지": 9503,
      "전기통신": 9504,
      "인터내": 9505,
      "협회는": 9506,
      "5000원": 9507,
      "공격적인": 9508,
      "콘셉트": 9509,
      "ment": 9510,
      "가면": 9511,
      "공무원": 9512,
      "깊이": 9513,
      "난방": 9514,
      "다할": 9515,
      "달할": 9516,
      "동네": 9517,
      "명이다": 9518,
      "사물": 9519,
      "살균": 9520,
      "생긴": 9521,
      "원작": 9522,
      "중도": 9523,
      "총장": 9524,
      "탄력": 9525,
      "편안": 9526,
      "화석": 9527,
      "기술력": 9528,
      "경제에": 9529,
      "성장했다": 9530,
      "확대되고": 9531,
      "사용자가": 9532,
      "지속할": 9533,
      "브랜드로": 9534,
      "확보에": 9535,
      "인수를": 9536,
      "당국이": 9537,
      "비트코인은": 9538,
      "한은은": 9539,
      "치솟았다": 9540,
      "있었지만": 9541,
      "낮추고": 9542,
      "신저가를": 9543,
      "식품의약품안전처": 9544,
      "날씨": 9545,
      "면허": 9546,
      "비싼": 9547,
      "사후": 9548,
      "유효": 9549,
      "치가": 9550,
      "탁월": 9551,
      "향상을": 9552,
      "호흡": 9553,
      "환자의": 9554,
      "회견": 9555,
      "사업화": 9556,
      "투자해": 9557,
      "교수와": 9558,
      "확보했다": 9559,
      "구성했다": 9560,
      "이하로": 9561,
      "ong": 9562,
      "동향을": 9563,
      "카메라모듈": 9564,
      "플랜트": 9565,
      "as": 9566,
      "더한": 9567,
      "독려": 9568,
      "로컬": 9569,
      "모건": 9570,
      "발의": 9571,
      "분께": 9572,
      "소수": 9573,
      "속도로": 9574,
      "승진": 9575,
      "엔씨": 9576,
      "옐런": 9577,
      "이때": 9578,
      "입원": 9579,
      "천안": 9580,
      "카지노": 9581,
      "투자은행": 9582,
      "한국과": 9583,
      "위해서다": 9584,
      "라인업": 9585,
      "안전하게": 9586,
      "전략이": 9587,
      "연계해": 9588,
      "점유율은": 9589,
      "New": 9590,
      "1인당": 9591,
      "BTC": 9592,
      "5배": 9593,
      "A씨는": 9594,
      "LX": 9595,
      "걸음": 9596,
      "국인": 9597,
      "그에": 9598,
      "소한": 9599,
      "수렴": 9600,
      "양질의": 9601,
      "엔드": 9602,
      "유틸": 9603,
      "줬다": 9604,
      "지에서": 9605,
      "찾을": 9606,
      "타결": 9607,
      "해주": 9608,
      "서울대학교": 9609,
      "금융을": 9610,
      "금융지원": 9611,
      "서비스업": 9612,
      "15만": 9613,
      "온라인으로": 9614,
      "경험할": 9615,
      "법인을": 9616,
      "판단했다": 9617,
      "넘어서": 9618,
      "넘어섰다": 9619,
      "공모가": 9620,
      "일정을": 9621,
      "추정된다": 9622,
      "부진한": 9623,
      "컴퓨팅": 9624,
      "리터당": 9625,
      "비비고": 9626,
      "시그니처": 9627,
      "덕분에": 9628,
      "마스크": 9629,
      "앞세워": 9630,
      "유관": 9631,
      "재유행": 9632,
      "청장": 9633,
      "헬싱": 9634,
      "안전을": 9635,
      "170": 9636,
      "부산엑스포": 9637,
      "모델은": 9638,
      "열린다": 9639,
      "할인된": 9640,
      "일반적으로": 9641,
      "투자자들은": 9642,
      "외환시장에서": 9643,
      "넘어설": 9644,
      "임대료": 9645,
      "흐름이": 9646,
      "Neo": 9647,
      "한정판": 9648,
      "휴대폰": 9649,
      "800": 9650,
      "LTV": 9651,
      "당연": 9652,
      "도보": 9653,
      "동탄": 9654,
      "조각": 9655,
      "조찬": 9656,
      "진로": 9657,
      "징후": 9658,
      "패드": 9659,
      "하늘": 9660,
      "제공하며": 9661,
      "경제연구원": 9662,
      "게임의": 9663,
      "인상과": 9664,
      "발표하고": 9665,
      "나타내는": 9666,
      "2002년": 9667,
      "있어요": 9668,
      "모두가": 9669,
      "보호를": 9670,
      "창업자": 9671,
      "입장에서는": 9672,
      "한화솔루션": 9673,
      "조언했다": 9674,
      "아우르는": 9675,
      "거대": 9676,
      "공부": 9677,
      "내기": 9678,
      "넘은": 9679,
      "대행": 9680,
      "동료": 9681,
      "로우": 9682,
      "모비스": 9683,
      "문구": 9684,
      "미친": 9685,
      "부사장은": 9686,
      "북한": 9687,
      "선점": 9688,
      "시뮬": 9689,
      "얼음": 9690,
      "완화를": 9691,
      "제29회": 9692,
      "팩트는": 9693,
      "해고": 9694,
      "확립": 9695,
      "중국이": 9696,
      "광고를": 9697,
      "마케팅을": 9698,
      "방통위": 9699,
      "인플레": 9700,
      "11일부터": 9701,
      "가리": 9702,
      "고점": 9703,
      "다올": 9704,
      "물에": 9705,
      "보조금": 9706,
      "본인의": 9707,
      "우승": 9708,
      "인류": 9709,
      "특유의": 9710,
      "할지": 9711,
      "성장에": 9712,
      "기관인": 9713,
      "참여하고": 9714,
      "개인은": 9715,
      "단계로": 9716,
      "ang": 9717,
      "통계청이": 9718,
      "특성상": 9719,
      "트랜스포": 9720,
      "1대": 9721,
      "1만원": 9722,
      "1000만": 9723,
      "JP": 9724,
      "계절": 9725,
      "부스": 9726,
      "분배": 9727,
      "세웠다": 9728,
      "수영": 9729,
      "여겨": 9730,
      "이외": 9731,
      "잘못": 9732,
      "종으로": 9733,
      "주인공": 9734,
      "탄탄": 9735,
      "틱톡": 9736,
      "연구에": 9737,
      "운영하며": 9738,
      "대출이": 9739,
      "개선될": 9740,
      "마련하고": 9741,
      "500만": 9742,
      "이내에": 9743,
      "장마철": 9744,
      "일각에서는": 9745,
      "지식재산권": 9746,
      "VP": 9747,
      "VS": 9748,
      "간단": 9749,
      "검찰": 9750,
      "나우": 9751,
      "느낌": 9752,
      "동남": 9753,
      "렸습니다": 9754,
      "부탁": 9755,
      "블로그": 9756,
      "상세": 9757,
      "실려": 9758,
      "앱스토어": 9759,
      "옵니다": 9760,
      "인기가": 9761,
      "재현": 9762,
      "통행": 9763,
      "한데": 9764,
      "헌혈": 9765,
      "한국이": 9766,
      "이번주": 9767,
      "성장하고": 9768,
      "삼성화재": 9769,
      "통신사": 9770,
      "결과는": 9771,
      "공정위": 9772,
      "가입할": 9773,
      "사고를": 9774,
      "효율적인": 9775,
      "네트웍": 9776,
      "오르며": 9777,
      "당국은": 9778,
      "후보자가": 9779,
      "리스크가": 9780,
      "사무소": 9781,
      "오름세를": 9782,
      "관찰": 9783,
      "무관": 9784,
      "미를": 9785,
      "생을": 9786,
      "스페인": 9787,
      "안으로": 9788,
      "어붙": 9789,
      "이산화탄소": 9790,
      "조항": 9791,
      "치며": 9792,
      "카디": 9793,
      "틱스": 9794,
      "사업과": 9795,
      "상승할": 9796,
      "확대한다": 9797,
      "운영에": 9798,
      "소비자에게": 9799,
      "조합론": 9800,
      "인천국제공항": 9801,
      "품질을": 9802,
      "이사장은": 9803,
      "충분한": 9804,
      "ity": 9805,
      "위메이드는": 9806,
      "면세점": 9807,
      "자릿수": 9808,
      "검은사막": 9809,
      "헬싱키": 9810,
      "간다는": 9811,
      "내달": 9812,
      "대와": 9813,
      "사과": 9814,
      "수거": 9815,
      "시총": 9816,
      "에피": 9817,
      "장현": 9818,
      "중남미": 9819,
      "페어": 9820,
      "형을": 9821,
      "투자의견": 9822,
      "대표를": 9823,
      "공급예": 9824,
      "센터와": 9825,
      "보고서는": 9826,
      "KTX": 9827,
      "확보해": 9828,
      "주목받고": 9829,
      "급등한": 9830,
      "사태로": 9831,
      "자본시장": 9832,
      "오름세가": 9833,
      "SE": 9834,
      "같습니다": 9835,
      "관제": 9836,
      "네스트": 9837,
      "높고": 9838,
      "되지만": 9839,
      "반환": 9840,
      "발사장": 9841,
      "발맞춰": 9842,
      "속에서도": 9843,
      "송출": 9844,
      "신성장": 9845,
      "아주": 9846,
      "약화": 9847,
      "었으나": 9848,
      "의사를": 9849,
      "조짐": 9850,
      "종도": 9851,
      "텍사스": 9852,
      "한양": 9853,
      "금융사": 9854,
      "하기는": 9855,
      "올해로": 9856,
      "게임은": 9857,
      "스타벅": 9858,
      "구축에": 9859,
      "2006년": 9860,
      "전환에": 9861,
      "온라인몰": 9862,
      "논의할": 9863,
      "소득세": 9864,
      "이노엔": 9865,
      "차별화": 9866,
      "커뮤니케이션": 9867,
      "가스요금이": 9868,
      "양호한": 9869,
      "HK이노엔": 9870,
      "MB": 9871,
      "급등으로": 9872,
      "기판": 9873,
      "김현": 9874,
      "냉방": 9875,
      "더드": 9876,
      "라스": 9877,
      "러브": 9878,
      "말부터": 9879,
      "배정": 9880,
      "보전": 9881,
      "스탬": 9882,
      "시연": 9883,
      "아끼": 9884,
      "양재": 9885,
      "인덱": 9886,
      "잡은": 9887,
      "줄줄이": 9888,
      "중기부": 9889,
      "헤드": 9890,
      "산업은": 9891,
      "미국은": 9892,
      "뉴스는": 9893,
      "우리나라는": 9894,
      "반영된": 9895,
      "수입은": 9896,
      "집중적으로": 9897,
      "10년간": 9898,
      "DT": 9899,
      "MD": 9900,
      "PMI": 9901,
      "kWh": 9902,
      "김경": 9903,
      "느껴": 9904,
      "면접": 9905,
      "바지": 9906,
      "브레이": 9907,
      "이성": 9908,
      "인치": 9909,
      "장기간": 9910,
      "중에는": 9911,
      "최다": 9912,
      "추세다": 9913,
      "크림": 9914,
      "편한": 9915,
      "합쳐": 9916,
      "기술인": 9917,
      "기준이": 9918,
      "성장률이": 9919,
      "플랫폼인": 9920,
      "업체에": 9921,
      "부문장": 9922,
      "상장지수": 9923,
      "프라자": 9924,
      "테이블": 9925,
      "SK텔레콤과": 9926,
      "스테이블": 9927,
      "파업에": 9928,
      "인근에": 9929,
      "단순히": 9930,
      "메뉴를": 9931,
      "소식이": 9932,
      "부정적인": 9933,
      "신선식품": 9934,
      "GC녹십": 9935,
      "변호사": 9936,
      "고는": 9937,
      "고추": 9938,
      "고강도": 9939,
      "더현대": 9940,
      "맡아": 9941,
      "명칭": 9942,
      "모임": 9943,
      "승객": 9944,
      "신장": 9945,
      "안에서": 9946,
      "안마의": 9947,
      "조용": 9948,
      "중이며": 9949,
      "첫째": 9950,
      "크기": 9951,
      "한컴": 9952,
      "물가에": 9953,
      "확대로": 9954,
      "이용자는": 9955,
      "공급하고": 9956,
      "사용량": 9957,
      "경우는": 9958,
      "위원회의": 9959,
      "경쟁력이": 9960,
      "기대할": 9961,
      "보험료를": 9962,
      "방문객": 9963,
      "대통령의": 9964,
      "효율화": 9965,
      "신고를": 9966,
      "BGA": 9967,
      "봉사단": 9968,
      "밸류체인": 9969,
      "자치단체": 9970,
      "스탬프": 9971,
      "mm": 9972,
      "개입": 9973,
      "고환율": 9974,
      "다변화": 9975,
      "드래": 9976,
      "렸던": 9977,
      "밑으로": 9978,
      "세권": 9979,
      "썸머": 9980,
      "아메리": 9981,
      "연관": 9982,
      "연락": 9983,
      "연체": 9984,
      "열렸다": 9985,
      "육성을": 9986,
      "인사이": 9987,
      "적재": 9988,
      "점진": 9989,
      "초격차": 9990,
      "춘천": 9991,
      "파라": 9992,
      "혁명": 9993,
      "혼자": 9994,
      "한국에": 9995,
      "기자회견": 9996,
      "금리인하": 9997,
      "활용될": 9998,
      "안전성을": 9999
    },
    "merges": [
      [
        "으",
        "로"
      ],
      [
        "했",
        "다"
      ],
      [
        "에",
        "서"
      ],
      [
        "있",
        "다"
      ],
      [
        "하",
        "는"
      ],
      [
        "이",
        "다"
      ],
      [
        "하",
        "고"
      ],
      [
        "0",
        "0"
      ],
      [
        "2",
        "0"
      ],
      [
        "한",
        "다"
      ],
      [
        "니",
        "다"
      ],
      [
        "지",
        "난"
      ],
      [
        "기",
        "업"
      ],
      [
        "있",
        "는"
      ],
      [
        "이",
        "라"
      ],
      [
        "까",
        "지"
      ],
      [
        "사",
        "업"
      ],
      [
        "시",
        "장"
      ],
      [
        "서",
        "울"
      ],
      [
        "투",
        "자"
      ],
      [
        "면",
        "서"
      ],
      [
        "부",
        "터"
      ],
      [
        "한",
        "국"
      ],
      [
        "습",
        "니다"
      ],
      [
        "기",
        "술"
      ],
      [
        "것",
        "으로"
      ],
      [
        "비",
        "스"
      ],
      [
        "금",
        "융"
      ],
      [
        "제",
        "공"
      ],
      [
        "통",
        "해"
      ],
      [
        "적",
        "으로"
      ],
      [
        "서",
        "비스"
      ],
      [
        "1",
        "0"
      ],
      [
        "대",
        "한"
      ],
      [
        "된",
        "다"
      ],
      [
        "밝",
        "혔"
      ],
      [
        "위",
        "해"
      ],
      [
        "억",
        "원"
      ],
      [
        "밝혔",
        "다"
      ],
      [
        "들",
        "이"
      ],
      [
        "적",
        "인"
      ],
      [
        "개",
        "발"
      ],
      [
        "연",
        "구"
      ],
      [
        "국",
        "내"
      ],
      [
        "하",
        "기"
      ],
      [
        "가",
        "능"
      ],
      [
        "지",
        "만"
      ],
      [
        "기",
        "자"
      ],
      [
        "가",
        "격"
      ],
      [
        "보",
        "다"
      ],
      [
        "정",
        "부"
      ],
      [
        "1",
        "9"
      ],
      [
        "상",
        "승"
      ],
      [
        "됐",
        "다"
      ],
      [
        "3",
        "0"
      ],
      [
        "경",
        "제"
      ],
      [
        "금",
        "리"
      ],
      [
        "거",
        "래"
      ],
      [
        "산",
        "업"
      ],
      [
        "지",
        "원"
      ],
      [
        "이라",
        "고"
      ],
      [
        "말",
        "했다"
      ],
      [
        "이",
        "어"
      ],
      [
        "은",
        "행"
      ],
      [
        "올",
        "해"
      ],
      [
        "대",
        "표"
      ],
      [
        "고",
        "객"
      ],
      [
        "에",
        "는"
      ],
      [
        "20",
        "2"
      ],
      [
        "이",
        "번"
      ],
      [
        "00",
        "0"
      ],
      [
        "진",
        "행"
      ],
      [
        "자",
        "는"
      ],
      [
        "미",
        "국"
      ],
      [
        "시",
        "스"
      ],
      [
        "뉴",
        "스"
      ],
      [
        "위",
        "한"
      ],
      [
        "글",
        "로"
      ],
      [
        "반",
        "기"
      ],
      [
        "기",
        "준"
      ],
      [
        "사",
        "진"
      ],
      [
        "데",
        "이"
      ],
      [
        "었",
        "다"
      ],
      [
        "이",
        "후"
      ],
      [
        "계",
        "획"
      ],
      [
        "이",
        "상"
      ],
      [
        "글로",
        "벌"
      ],
      [
        "되",
        "는"
      ],
      [
        "물",
        "가"
      ],
      [
        "관",
        "계"
      ],
      [
        "정",
        "보"
      ],
      [
        "달",
        "러"
      ],
      [
        "에",
        "게"
      ],
      [
        "1",
        "일"
      ],
      [
        "레",
        "이"
      ],
      [
        "지난",
        "해"
      ],
      [
        "상",
        "품"
      ],
      [
        "지",
        "역"
      ],
      [
        "제",
        "품"
      ],
      [
        "성",
        "장"
      ],
      [
        "하",
        "게"
      ],
      [
        "확",
        "대"
      ],
      [
        "판",
        "매"
      ],
      [
        "하",
        "다"
      ],
      [
        "최",
        "근"
      ],
      [
        "예",
        "정"
      ],
      [
        "장",
        "은"
      ],
      [
        "삼",
        "성"
      ],
      [
        "대",
        "비"
      ],
      [
        "관",
        "련"
      ],
      [
        "등",
        "을"
      ],
      [
        "소",
        "비"
      ],
      [
        "너",
        "지"
      ],
      [
        "르",
        "면"
      ],
      [
        "도",
        "록"
      ],
      [
        "전",
        "망"
      ],
      [
        "겠",
        "다"
      ],
      [
        "세",
        "계"
      ],
      [
        "이",
        "용"
      ],
      [
        "프",
        "로"
      ],
      [
        "다",
        "양"
      ],
      [
        "에",
        "도"
      ],
      [
        "기",
        "관"
      ],
      [
        "환",
        "경"
      ],
      [
        "시",
        "간"
      ],
      [
        "전",
        "자"
      ],
      [
        "상",
        "황"
      ],
      [
        "함",
        "께"
      ],
      [
        "관",
        "리"
      ],
      [
        "따",
        "르면"
      ],
      [
        "5",
        "일"
      ],
      [
        "증",
        "가"
      ],
      [
        "에",
        "너지"
      ],
      [
        "하",
        "락"
      ],
      [
        "공",
        "급"
      ],
      [
        "전",
        "문"
      ],
      [
        "대",
        "상"
      ],
      [
        "다양",
        "한"
      ],
      [
        "게",
        "임"
      ],
      [
        "분",
        "기"
      ],
      [
        "4",
        "일"
      ],
      [
        "마",
        "트"
      ],
      [
        "L",
        "G"
      ],
      [
        "사",
        "용"
      ],
      [
        "들",
        "의"
      ],
      [
        "경",
        "기"
      ],
      [
        "경",
        "우"
      ],
      [
        "최",
        "대"
      ],
      [
        "활",
        "용"
      ],
      [
        "하",
        "며"
      ],
      [
        "기",
        "록"
      ],
      [
        "스",
        "트"
      ],
      [
        "데이",
        "터"
      ],
      [
        "업",
        "계"
      ],
      [
        "운",
        "영"
      ],
      [
        "규",
        "모"
      ],
      [
        "대",
        "출"
      ],
      [
        "회",
        "사"
      ],
      [
        "카",
        "오"
      ],
      [
        "정",
        "책"
      ],
      [
        "5",
        "0"
      ],
      [
        "1",
        "2"
      ],
      [
        "카",
        "카오"
      ],
      [
        "증",
        "권"
      ],
      [
        "위",
        "원"
      ],
      [
        "따",
        "라"
      ],
      [
        "같",
        "은"
      ],
      [
        "라",
        "이"
      ],
      [
        "지난",
        "달"
      ],
      [
        "6",
        "월"
      ],
      [
        "필",
        "요"
      ],
      [
        "우",
        "리"
      ],
      [
        "때",
        "문"
      ],
      [
        "1",
        "1"
      ],
      [
        "라",
        "인"
      ],
      [
        "경",
        "영"
      ],
      [
        "성",
        "을"
      ],
      [
        "만",
        "원"
      ],
      [
        "랜",
        "드"
      ],
      [
        "았",
        "다"
      ],
      [
        "지",
        "속"
      ],
      [
        "들",
        "은"
      ],
      [
        "A",
        "I"
      ],
      [
        "인",
        "상"
      ],
      [
        "수",
        "출"
      ],
      [
        "설",
        "명"
      ],
      [
        "플",
        "랫"
      ],
      [
        "플랫",
        "폼"
      ],
      [
        "들",
        "어"
      ],
      [
        "성",
        "이"
      ],
      [
        "대",
        "해"
      ],
      [
        "지",
        "수"
      ],
      [
        "디",
        "지"
      ],
      [
        "202",
        "2"
      ],
      [
        "에서",
        "는"
      ],
      [
        "가",
        "장"
      ],
      [
        "그",
        "룹"
      ],
      [
        "생",
        "산"
      ],
      [
        "하",
        "면"
      ],
      [
        "디지",
        "털"
      ],
      [
        "소비",
        "자"
      ],
      [
        "바",
        "이"
      ],
      [
        "로",
        "나"
      ],
      [
        "이",
        "날"
      ],
      [
        "자",
        "산"
      ],
      [
        "력",
        "을"
      ],
      [
        "수",
        "준"
      ],
      [
        "전",
        "기"
      ],
      [
        "현",
        "재"
      ],
      [
        "교",
        "수"
      ],
      [
        "평",
        "가"
      ],
      [
        "수",
        "요"
      ],
      [
        "반",
        "도"
      ],
      [
        "코",
        "로나"
      ],
      [
        "규",
        "제"
      ],
      [
        "통",
        "신"
      ],
      [
        "주",
        "택"
      ],
      [
        "현",
        "대"
      ],
      [
        "했다",
        "고"
      ],
      [
        "주",
        "요"
      ],
      [
        "되",
        "고"
      ],
      [
        "졌",
        "다"
      ],
      [
        "기",
        "간"
      ],
      [
        "스",
        "타"
      ],
      [
        "반도",
        "체"
      ],
      [
        "파",
        "트"
      ],
      [
        "발",
        "표"
      ],
      [
        "분",
        "야"
      ],
      [
        "연",
        "합"
      ],
      [
        "회",
        "의"
      ],
      [
        "이",
        "는"
      ],
      [
        "중",
        "국"
      ],
      [
        "분",
        "석"
      ],
      [
        "출",
        "시"
      ],
      [
        "안",
        "전"
      ],
      [
        "S",
        "K"
      ],
      [
        "플",
        "레이"
      ],
      [
        "관계",
        "자는"
      ],
      [
        "센",
        "터"
      ],
      [
        "시",
        "작"
      ],
      [
        "추",
        "진"
      ],
      [
        "국",
        "제"
      ],
      [
        "참",
        "여"
      ],
      [
        "있",
        "도록"
      ],
      [
        "업",
        "체"
      ],
      [
        "입",
        "니다"
      ],
      [
        "오",
        "는"
      ],
      [
        "시스",
        "템"
      ],
      [
        "4",
        "0"
      ],
      [
        "아",
        "이"
      ],
      [
        "적",
        "용"
      ],
      [
        "추",
        "가"
      ],
      [
        "경",
        "쟁"
      ],
      [
        "항",
        "공"
      ],
      [
        "1",
        "3"
      ],
      [
        "회",
        "장"
      ],
      [
        "해",
        "야"
      ],
      [
        "으",
        "며"
      ],
      [
        "하",
        "지"
      ],
      [
        "예정",
        "이다"
      ],
      [
        "최",
        "고"
      ],
      [
        "특",
        "히"
      ],
      [
        "1",
        "5"
      ],
      [
        "하",
        "면서"
      ],
      [
        "1",
        "00"
      ],
      [
        "기",
        "대"
      ],
      [
        "매",
        "출"
      ],
      [
        "개",
        "선"
      ],
      [
        "강",
        "화"
      ],
      [
        "5",
        "월"
      ],
      [
        "인",
        "트"
      ],
      [
        "1",
        "년"
      ],
      [
        "하",
        "겠다"
      ],
      [
        "주",
        "가"
      ],
      [
        "사",
        "회"
      ],
      [
        "해",
        "외"
      ],
      [
        "기",
        "반"
      ],
      [
        "보",
        "험"
      ],
      [
        "리",
        "는"
      ],
      [
        "것",
        "이"
      ],
      [
        "보",
        "고"
      ],
      [
        "였",
        "다"
      ],
      [
        "높",
        "은"
      ],
      [
        "개",
        "월"
      ],
      [
        "포",
        "인트"
      ],
      [
        "러",
        "스"
      ],
      [
        "우",
        "려"
      ],
      [
        "예",
        "상"
      ],
      [
        "협",
        "력"
      ],
      [
        "만",
        "에"
      ],
      [
        "기",
        "존"
      ],
      [
        "하",
        "반기"
      ],
      [
        "코",
        "스"
      ],
      [
        "스",
        "마트"
      ],
      [
        "1",
        "8"
      ],
      [
        "전",
        "략"
      ],
      [
        "문",
        "제"
      ],
      [
        "영",
        "상"
      ],
      [
        "브",
        "랜드"
      ],
      [
        "구",
        "축"
      ],
      [
        "나",
        "타"
      ],
      [
        "자",
        "동"
      ],
      [
        "세",
        "대"
      ],
      [
        "했",
        "습니다"
      ],
      [
        "개",
        "인"
      ],
      [
        "영",
        "향"
      ],
      [
        "다",
        "는"
      ],
      [
        "가",
        "치"
      ],
      [
        "계획",
        "이다"
      ],
      [
        "하",
        "나"
      ],
      [
        "기",
        "를"
      ],
      [
        "지",
        "는"
      ],
      [
        "직",
        "원"
      ],
      [
        "상",
        "반기"
      ],
      [
        "이",
        "를"
      ],
      [
        "콘",
        "텐"
      ],
      [
        "실",
        "적"
      ],
      [
        "아",
        "니"
      ],
      [
        "사",
        "를"
      ],
      [
        "결",
        "과"
      ],
      [
        "K",
        "T"
      ],
      [
        "시",
        "아"
      ],
      [
        "부",
        "담"
      ],
      [
        "7",
        "월"
      ],
      [
        "코로나",
        "19"
      ],
      [
        "자",
        "가"
      ],
      [
        "1",
        "7"
      ],
      [
        "지",
        "고"
      ],
      [
        "건",
        "설"
      ],
      [
        "6",
        "일"
      ],
      [
        "성",
        "과"
      ],
      [
        "대",
        "로"
      ],
      [
        "페",
        "이"
      ],
      [
        "감",
        "소"
      ],
      [
        "콘텐",
        "츠"
      ],
      [
        "발",
        "생"
      ],
      [
        "2",
        "00"
      ],
      [
        "혁",
        "신"
      ],
      [
        "1",
        "4"
      ],
      [
        "장",
        "을"
      ],
      [
        "사",
        "이"
      ],
      [
        "가",
        "운"
      ],
      [
        "연합",
        "뉴스"
      ],
      [
        "교",
        "육"
      ],
      [
        "2",
        "3"
      ],
      [
        "가운",
        "데"
      ],
      [
        "대",
        "학"
      ],
      [
        "연구",
        "원"
      ],
      [
        "만",
        "큼"
      ],
      [
        "라",
        "고"
      ],
      [
        "한다",
        "고"
      ],
      [
        "업",
        "무"
      ],
      [
        "과",
        "학"
      ],
      [
        "전",
        "력"
      ],
      [
        "안",
        "정"
      ],
      [
        "장",
        "관"
      ],
      [
        "영",
        "업"
      ],
      [
        "주",
        "식"
      ],
      [
        "들",
        "을"
      ],
      [
        "로",
        "운"
      ],
      [
        "마",
        "련"
      ],
      [
        "활",
        "동"
      ],
      [
        "뉴",
        "시스"
      ],
      [
        "전",
        "환"
      ],
      [
        "확",
        "보"
      ],
      [
        "미",
        "래"
      ],
      [
        "국",
        "민"
      ],
      [
        "수",
        "익"
      ],
      [
        "6",
        "0"
      ],
      [
        "서비스",
        "를"
      ],
      [
        "있",
        "어"
      ],
      [
        "이",
        "에"
      ],
      [
        "결",
        "제"
      ],
      [
        "카",
        "드"
      ],
      [
        "조",
        "사"
      ],
      [
        "지",
        "를"
      ],
      [
        "일",
        "본"
      ],
      [
        "모",
        "두"
      ],
      [
        "확",
        "인"
      ],
      [
        "등",
        "의"
      ],
      [
        "등",
        "이"
      ],
      [
        "과",
        "정"
      ],
      [
        "이라",
        "며"
      ],
      [
        "동",
        "안"
      ],
      [
        "목",
        "표"
      ],
      [
        "신",
        "규"
      ],
      [
        "보",
        "인"
      ],
      [
        "평",
        "균"
      ],
      [
        "적",
        "극"
      ],
      [
        "위",
        "기"
      ],
      [
        "것",
        "이다"
      ],
      [
        "중",
        "소"
      ],
      [
        "부",
        "산"
      ],
      [
        "국",
        "가"
      ],
      [
        "이",
        "나"
      ],
      [
        "뉴스",
        "1"
      ],
      [
        "발",
        "전"
      ],
      [
        "위원",
        "회"
      ],
      [
        "있다",
        "는"
      ],
      [
        "대",
        "응"
      ],
      [
        "2",
        "2"
      ],
      [
        "삼성",
        "전자"
      ],
      [
        "이",
        "고"
      ],
      [
        "공",
        "개"
      ],
      [
        "아",
        "파트"
      ],
      [
        "는",
        "데"
      ],
      [
        "침",
        "체"
      ],
      [
        "설명",
        "했다"
      ],
      [
        "그",
        "램"
      ],
      [
        "롯",
        "데"
      ],
      [
        "다",
        "른"
      ],
      [
        "방",
        "안"
      ],
      [
        "점",
        "을"
      ],
      [
        "많",
        "은"
[...]
